{
  "version": "1.0",
  "truncation": null,
  "padding": null,
  "added_tokens": [
    {
      "id": 0,
      "content": "[PAD]",
      "single_word": false,
      "lstrip": false,
      "rstrip": false,
      "normalized": false,
      "special": true
    },
    {
      "id": 1,
      "content": "[UNK]",
      "single_word": false,
      "lstrip": false,
      "rstrip": false,
      "normalized": false,
      "special": true
    },
    {
      "id": 2,
      "content": "[BOS]",
      "single_word": false,
      "lstrip": false,
      "rstrip": false,
      "normalized": false,
      "special": true
    },
    {
      "id": 3,
      "content": "[EOS]",
      "single_word": false,
      "lstrip": false,
      "rstrip": false,
      "normalized": false,
      "special": true
    },
    {
      "id": 4,
      "content": "[MASK]",
      "single_word": false,
      "lstrip": false,
      "rstrip": false,
      "normalized": false,
      "special": true
    }
  ],
  "normalizer": null,
  "pre_tokenizer": {
    "type": "Whitespace"
  },
  "post_processor": {
    "type": "TemplateProcessing",
    "single": [
      {
        "SpecialToken": {
          "id": "[BOS]",
          "type_id": 0
        }
      },
      {
        "Sequence": {
          "id": "A",
          "type_id": 0
        }
      },
      {
        "SpecialToken": {
          "id": "[EOS]",
          "type_id": 0
        }
      }
    ],
    "pair": [
      {
        "Sequence": {
          "id": "A",
          "type_id": 0
        }
      },
      {
        "Sequence": {
          "id": "B",
          "type_id": 1
        }
      }
    ],
    "special_tokens": {
      "[BOS]": {
        "id": "[BOS]",
        "ids": [
          2
        ],
        "tokens": [
          "[BOS]"
        ]
      },
      "[EOS]": {
        "id": "[EOS]",
        "ids": [
          3
        ],
        "tokens": [
          "[EOS]"
        ]
      }
    }
  },
  "decoder": null,
  "model": {
    "type": "BPE",
    "dropout": null,
    "unk_token": null,
    "continuing_subword_prefix": null,
    "end_of_word_suffix": null,
    "fuse_unk": false,
    "byte_fallback": false,
    "ignore_merges": false,
    "vocab": {
      "[PAD]": 0,
      "[UNK]": 1,
      "[BOS]": 2,
      "[EOS]": 3,
      "[MASK]": 4,
      "!": 5,
      "\"": 6,
      "$": 7,
      "'": 8,
      ",": 9,
      "-": 10,
      ".": 11,
      "0": 12,
      "1": 13,
      "2": 14,
      "3": 15,
      "8": 16,
      ":": 17,
      ";": 18,
      "?": 19,
      "A": 20,
      "B": 21,
      "C": 22,
      "D": 23,
      "E": 24,
      "F": 25,
      "G": 26,
      "H": 27,
      "I": 28,
      "J": 29,
      "K": 30,
      "L": 31,
      "M": 32,
      "N": 33,
      "O": 34,
      "P": 35,
      "Q": 36,
      "R": 37,
      "S": 38,
      "T": 39,
      "U": 40,
      "V": 41,
      "W": 42,
      "X": 43,
      "Y": 44,
      "Z": 45,
      "a": 46,
      "b": 47,
      "c": 48,
      "d": 49,
      "e": 50,
      "f": 51,
      "g": 52,
      "h": 53,
      "i": 54,
      "j": 55,
      "k": 56,
      "l": 57,
      "m": 58,
      "n": 59,
      "o": 60,
      "p": 61,
      "q": 62,
      "r": 63,
      "s": 64,
      "t": 65,
      "u": 66,
      "v": 67,
      "w": 68,
      "x": 69,
      "y": 70,
      "z": 71,
      "â": 72,
      "œ": 73,
      "“": 74,
      "”": 75,
      "€": 76,
      "™": 77,
      "he": 78,
      "an": 79,
      "the": 80,
      "ed": 81,
      "and": 82,
      "to": 83,
      "in": 84,
      "re": 85,
      "ou": 86,
      "it": 87,
      "wa": 88,
      "ha": 89,
      "er": 90,
      "en": 91,
      "The": 92,
      "was": 93,
      "on": 94,
      "om": 95,
      "ar": 96,
      "is": 97,
      "ing": 98,
      "sa": 99,
      "il": 100,
      "id": 101,
      "le": 102,
      "lo": 103,
      "ay": 104,
      "st": 105,
      "im": 106,
      "al": 107,
      "or": 108,
      "He": 109,
      "She": 110,
      "They": 111,
      "her": 112,
      "th": 113,
      "ir": 114,
      "be": 115,
      "ver": 116,
      "ck": 117,
      "se": 118,
      "hat": 119,
      "ne": 120,
      "ke": 121,
      "no": 122,
      "ut": 123,
      "at": 124,
      "ld": 125,
      "ve": 126,
      "said": 127,
      "ce": 128,
      "ig": 129,
      "she": 130,
      "ad": 131,
      "pl": 132,
      "am": 133,
      "wit": 134,
      "so": 135,
      "with": 136,
      "ly": 137,
      "ri": 138,
      "pp": 139,
      "his": 140,
      "ked": 141,
      "you": 142,
      "we": 143,
      "ome": 144,
      "of": 145,
      "ily": 146,
      "un": 147,
      "li": 148,
      "very": 149,
      "es": 150,
      "ch": 151,
      "go": 152,
      "my": 153,
      "day": 154,
      "Lily": 155,
      "up": 156,
      "ow": 157,
      "as": 158,
      "that": 159,
      "ted": 160,
      "had": 161,
      "el": 162,
      "play": 163,
      "for": 164,
      "they": 165,
      "nd": 166,
      "are": 167,
      "bo": 168,
      "ent": 169,
      "end": 170,
      "ould": 171,
      "all": 172,
      "It": 173,
      "et": 174,
      "ok": 175,
      "wan": 176,
      "happ": 177,
      "sm": 178,
      "itt": 179,
      "sh": 180,
      "do": 181,
      "ack": 182,
      "mom": 183,
      "not": 184,
      "ys": 185,
      "ound": 186,
      "out": 187,
      "tim": 188,
      "ther": 189,
      "ry": 190,
      "ht": 191,
      "ug": 192,
      "ittle": 193,
      "ro": 194,
      ".\"": 195,
      "ake": 196,
      "little": 197,
      "ul": 198,
      "some": 199,
      "big": 200,
      "riend": 201,
      "time": 202,
      "friend": 203,
      "thing": 204,
      "happy": 205,
      "ra": 206,
      "there": 207,
      "Ben": 208,
      "saw": 209,
      "one": 210,
      "ter": 211,
      "but": 212,
      "were": 213,
      "ide": 214,
      "!\"": 215,
      "ho": 216,
      "ag": 217,
      "them": 218,
      "him": 219,
      "One": 220,
      "sp": 221,
      "car": 222,
      "ful": 223,
      "On": 224,
      "smil": 225,
      "their": 226,
      "irl": 227,
      "girl": 228,
      "Once": 229,
      "fe": 230,
      "ill": 231,
      "ved": 232,
      "wanted": 233,
      "have": 234,
      "Tim": 235,
      "ex": 236,
      "Tom": 237,
      "ur": 238,
      "ind": 239,
      "ec": 240,
      "ge": 241,
      "can": 242,
      "me": 243,
      "like": 244,
      "mo": 245,
      "ran": 246,
      "co": 247,
      "upon": 248,
      "could": 249,
      "did": 250,
      "hen": 251,
      "way": 252,
      "ight": 253,
      "um": 254,
      "back": 255,
      "ab": 256,
      "ain": 257,
      "friends": 258,
      "ic": 259,
      "went": 260,
      "?\"": 261,
      "You": 262,
      "rom": 263,
      "But": 264,
      "od": 265,
      "loo": 266,
      "hel": 267,
      "says": 268,
      "hed": 269,
      "ame": 270,
      "fel": 271,
      "smiled": 272,
      "fun": 273,
      "see": 274,
      "new": 275,
      "ll": 276,
      "looked": 277,
      "man": 278,
      "low": 279,
      "fo": 280,
      "side": 281,
      "ure": 282,
      "too": 283,
      "ick": 284,
      ",\"": 285,
      "ong": 286,
      "ard": 287,
      "help": 288,
      "star": 289,
      "oug": 290,
      "fa": 291,
      "ice": 292,
      "Mom": 293,
      "boy": 294,
      "ark": 295,
      "felt": 296,
      "make": 297,
      "around": 298,
      "would": 299,
      "own": 300,
      "na": 301,
      "op": 302,
      "asked": 303,
      "Timmy": 304,
      "sto": 305,
      "ade": 306,
      "gr": 307,
      "la": 308,
      "now": 309,
      "other": 310,
      "want": 311,
      "away": 312,
      "ru": 313,
      "ea": 314,
      "something": 315,
      "wor": 316,
      "dd": 317,
      "pr": 318,
      "look": 319,
      "what": 320,
      "loved": 321,
      "amed": 322,
      "ited": 323,
      "hug": 324,
      "exc": 325,
      "made": 326,
      "ree": 327,
      "ep": 328,
      "ara": 329,
      "Sara": 330,
      "gether": 331,
      "from": 332,
      "started": 333,
      "get": 334,
      "put": 335,
      "oud": 336,
      "ts": 337,
      "named": 338,
      "pe": 339,
      "ol": 340,
      "again": 341,
      "An": 342,
      "bir": 343,
      "then": 344,
      "who": 345,
      "mu": 346,
      "together": 347,
      "qu": 348,
      "ave": 349,
      "when": 350,
      "good": 351,
      "playing": 352,
      "more": 353,
      "home": 354,
      "feel": 355,
      "Anna": 356,
      "take": 357,
      "excited": 358,
      "found": 359,
      "wal": 360,
      "sad": 361,
      "pped": 362,
      "got": 363,
      "every": 364,
      "bird": 365,
      "dec": 366,
      "your": 367,
      "park": 368,
      "came": 369,
      "ous": 370,
      "ite": 371,
      "than": 372,
      "ss": 373,
      "scar": 374,
      "liked": 375,
      "Su": 376,
      "der": 377,
      "care": 378,
      "things": 379,
      "br": 380,
      "if": 381,
      "ought": 382,
      "spec": 383,
      "decid": 384,
      "our": 385,
      "ca": 386,
      "bed": 387,
      "ouse": 388,
      "decided": 389,
      "dad": 390,
      "sha": 391,
      "old": 392,
      "ret": 393,
      "ial": 394,
      "ried": 395,
      "king": 396,
      "Jack": 397,
      "here": 398,
      "room": 399,
      "ang": 400,
      "dog": 401,
      "We": 402,
      "special": 403,
      "down": 404,
      "us": 405,
      "ate": 406,
      "about": 407,
      "bl": 408,
      "clo": 409,
      "Jo": 410,
      "ally": 411,
      "po": 412,
      "sor": 413,
      "took": 414,
      "ers": 415,
      "ive": 416,
      "So": 417,
      "come": 418,
      "wh": 419,
      "wo": 420,
      "run": 421,
      "ise": 422,
      "ways": 423,
      "by": 424,
      "ened": 425,
      "scared": 426,
      "find": 427,
      "arn": 428,
      "Sam": 429,
      "know": 430,
      "sk": 431,
      "ear": 432,
      "ny": 433,
      "jo": 434,
      "each": 435,
      "use": 436,
      "always": 437,
      "never": 438,
      "sorry": 439,
      "red": 440,
      "thought": 441,
      "Every": 442,
      "ia": 443,
      "ju": 444,
      "toys": 445,
      "careful": 446,
      "outside": 447,
      "ched": 448,
      "able": 449,
      "dden": 450,
      "will": 451,
      "laug": 452,
      "ged": 453,
      "ie": 454,
      "And": 455,
      "de": 456,
      "learn": 457,
      "ddenly": 458,
      "Mia": 459,
      "bu": 460,
      "dre": 461,
      "ta": 462,
      "fore": 463,
      "rab": 464,
      "long": 465,
      "ma": 466,
      "this": 467,
      "fter": 468,
      "water": 469,
      "ist": 470,
      "much": 471,
      "Let": 472,
      "wat": 473,
      "tree": 474,
      "cl": 475,
      "ink": 476,
      "any": 477,
      "ish": 478,
      "sun": 479,
      "box": 480,
      "cat": 481,
      "ine": 482,
      "small": 483,
      "vent": 484,
      "ant": 485,
      "When": 486,
      "Her": 487,
      "gre": 488,
      "house": 489,
      "into": 490,
      "didn": 491,
      "how": 492,
      "war": 493,
      "Suddenly": 494,
      "ty": 495,
      "Then": 496,
      "ving": 497,
      "exp": 498,
      "hugged": 499,
      "lad": 500,
      "gave": 501,
      "nice": 502,
      "told": 503,
      "har": 504,
      "bea": 505,
      "many": 506,
      "That": 507,
      "bit": 508,
      "che": 509,
      "over": 510,
      "show": 511,
      "rea": 512,
      "fly": 513,
      "knew": 514,
      "tter": 515,
      "couldn": 516,
      "proud": 517,
      "cle": 518,
      "inside": 519,
      "toy": 520,
      "tru": 521,
      "sel": 522,
      "pla": 523,
      "Ma": 524,
      "ion": 525,
      "pick": 526,
      "rong": 527,
      "pret": 528,
      "heard": 529,
      "read": 530,
      "doll": 531,
      "ump": 532,
      "don": 533,
      "hand": 534,
      "pu": 535,
      "bear": 536,
      "unt": 537,
      "ven": 538,
      "yes": 539,
      "love": 540,
      "cy": 541,
      "led": 542,
      "gard": 543,
      "say": 544,
      "thanked": 545,
      "garden": 546,
      "pa": 547,
      "need": 548,
      "just": 549,
      "explo": 550,
      "eat": 551,
      "best": 552,
      "mommy": 553,
      "fast": 554,
      "ball": 555,
      "cu": 556,
      "dy": 557,
      "until": 558,
      "call": 559,
      "its": 560,
      "off": 561,
      "ough": 562,
      "cre": 563,
      "flow": 564,
      "Mommy": 565,
      "What": 566,
      "try": 567,
      "cks": 568,
      "ass": 569,
      "Max": 570,
      "ber": 571,
      "ummy": 572,
      "com": 573,
      "hn": 574,
      "iny": 575,
      "John": 576,
      "sky": 577,
      "tried": 578,
      "won": 579,
      "pt": 580,
      "ble": 581,
      "sur": 582,
      "anim": 583,
      "animal": 584,
      "give": 585,
      "No": 586,
      "ue": 587,
      "ell": 588,
      "has": 589,
      "better": 590,
      "book": 591,
      "beaut": 592,
      "self": 593,
      "ting": 594,
      "His": 595,
      "sw": 596,
      "where": 597,
      "ground": 598,
      "olly": 599,
      "From": 600,
      "advent": 601,
      "played": 602,
      "iz": 603,
      "iful": 604,
      "hur": 605,
      "ning": 606,
      "joy": 607,
      "place": 608,
      "beautiful": 609,
      "soon": 610,
      "€™": 611,
      "stay": 612,
      "ash": 613,
      "Can": 614,
      "list": 615,
      "share": 616,
      "Yes": 617,
      "learned": 618,
      "kind": 619,
      "called": 620,
      "surpr": 621,
      "adventure": 622,
      "two": 623,
      "ile": 624,
      "laughed": 625,
      "Lu": 626,
      "jump": 627,
      "ank": 628,
      "Lil": 629,
      "bal": 630,
      "bra": 631,
      "fi": 632,
      "still": 633,
      "beca": 634,
      "clos": 635,
      "because": 636,
      "Molly": 637,
      "lea": 638,
      "let": 639,
      "Lucy": 640,
      "bug": 641,
      "loud": 642,
      "per": 643,
      "tre": 644,
      "shiny": 645,
      "urn": 646,
      "cr": 647,
      "even": 648,
      "ama": 649,
      "both": 650,
      "sho": 651,
      "should": 652,
      "ople": 653,
      "fam": 654,
      "fish": 655,
      "ob": 656,
      "Lila": 657,
      "wind": 658,
      "boat": 659,
      "people": 660,
      "cry": 661,
      "kept": 662,
      "nodd": 663,
      "walked": 664,
      "Th": 665,
      "eyes": 666,
      "fle": 667,
      "ct": 668,
      "nt": 669,
      "su": 670,
      "hear": 671,
      "igh": 672,
      "under": 673,
      "lots": 674,
      "smile": 675,
      "animals": 676,
      "ds": 677,
      "fin": 678,
      "before": 679,
      "face": 680,
      "opened": 681,
      "feeling": 682,
      "Thank": 683,
      "spo": 684,
      "explore": 685,
      "nodded": 686,
      "strong": 687,
      "ever": 688,
      "light": 689,
      "imp": 690,
      "angry": 691,
      "hard": 692,
      "wonder": 693,
      "ished": 694,
      "blo": 695,
      "con": 696,
      "ste": 697,
      "ask": 698,
      "iced": 699,
      "After": 700,
      "grab": 701,
      "aybe": 702,
      "mem": 703,
      "everyone": 704,
      "truck": 705,
      "family": 706,
      "app": 707,
      "vo": 708,
      "ised": 709,
      "going": 710,
      "ught": 711,
      "bro": 712,
      "ane": 713,
      "keep": 714,
      "chil": 715,
      "watch": 716,
      "brave": 717,
      "bad": 718,
      "fl": 719,
      "ip": 720,
      "mag": 721,
      "head": 722,
      "thr": 723,
      "flew": 724,
      "As": 725,
      "Bob": 726,
      "Dad": 727,
      "pic": 728,
      "sl": 729,
      "noise": 730,
      "ries": 731,
      "amaz": 732,
      "ft": 733,
      "safe": 734,
      "lot": 735,
      "hurt": 736,
      "leave": 737,
      "noticed": 738,
      "blue": 739,
      "wait": 740,
      "also": 741,
      "lived": 742,
      "door": 743,
      "raw": 744,
      "hole": 745,
      "quick": 746,
      "nex": 747,
      "age": 748,
      "colo": 749,
      "uck": 750,
      "mean": 751,
      "walking": 752,
      "next": 753,
      "Lo": 754,
      "after": 755,
      "pain": 756,
      "ort": 757,
      "color": 758,
      "Do": 759,
      "Maybe": 760,
      "llow": 761,
      "te": 762,
      "loon": 763,
      "idea": 764,
      "balloon": 765,
      "mon": 766,
      "name": 767,
      "tea": 768,
      "looking": 769,
      "watched": 770,
      "clim": 771,
      "great": 772,
      "ious": 773,
      "ring": 774,
      "tell": 775,
      "year": 776,
      "leep": 777,
      "seen": 778,
      "cho": 779,
      "clean": 780,
      "flowers": 781,
      "dis": 782,
      "dif": 783,
      "remem": 784,
      "arm": 785,
      "illy": 786,
      "irst": 787,
      "weet": 788,
      "follow": 789,
      "bye": 790,
      "curi": 791,
      "voice": 792,
      "par": 793,
      "sing": 794,
      "less": 795,
      "think": 796,
      "ired": 797,
      "work": 798,
      "Sue": 799,
      "quickly": 800,
      "bor": 801,
      "gan": 802,
      "real": 803,
      "does": 804,
      "rabbit": 805,
      "listen": 806,
      "closer": 807,
      "mor": 808,
      "enjoy": 809,
      "Hel": 810,
      "picked": 811,
      "magic": 812,
      "cket": 813,
      "rain": 814,
      "bow": 815,
      "ture": 816,
      "isy": 817,
      "ess": 818,
      "ready": 819,
      "This": 820,
      "fr": 821,
      "night": 822,
      "turn": 823,
      "stick": 824,
      "cars": 825,
      "stopped": 826,
      "used": 827,
      "while": 828,
      "picture": 829,
      "ied": 830,
      "tired": 831,
      "set": 832,
      "walk": 833,
      "warm": 834,
      "pretty": 835,
      "lease": 836,
      "Look": 837,
      "curious": 838,
      "ac": 839,
      "tal": 840,
      "top": 841,
      "lie": 842,
      "goodbye": 843,
      "laugh": 844,
      "remember": 845,
      "Jim": 846,
      "pul": 847,
      "Sarah": 848,
      "slide": 849,
      "cher": 850,
      "game": 851,
      "les": 852,
      "three": 853,
      "sees": 854,
      "fere": 855,
      "cold": 856,
      "world": 857,
      "Everyone": 858,
      "hands": 859,
      "air": 860,
      "first": 861,
      "ner": 862,
      "yel": 863,
      "differe": 864,
      "Jane": 865,
      "cha": 866,
      "pen": 867,
      "outed": 868,
      "near": 869,
      "likes": 870,
      "pretend": 871,
      "brother": 872,
      "Now": 873,
      "glad": 874,
      "squ": 875,
      "been": 876,
      "Joe": 877,
      "forest": 878,
      "different": 879,
      "brea": 880,
      "table": 881,
      "shouted": 882,
      "lady": 883,
      "aisy": 884,
      "dark": 885,
      "sweet": 886,
      "happened": 887,
      "times": 888,
      "looks": 889,
      "Daisy": 890,
      "flo": 891,
      "tou": 892,
      "stand": 893,
      "ster": 894,
      "stran": 895,
      "began": 896,
      "fav": 897,
      "open": 898,
      "through": 899,
      "mouse": 900,
      "sure": 901,
      "ered": 902,
      "butter": 903,
      "grass": 904,
      "dress": 905,
      "anymore": 906,
      "gu": 907,
      "ient": 908,
      "became": 909,
      "ized": 910,
      "cou": 911,
      "fill": 912,
      "ger": 913,
      "mar": 914,
      "right": 915,
      "waved": 916,
      "ket": 917,
      "ppy": 918,
      "Tommy": 919,
      "bright": 920,
      "green": 921,
      "puppy": 922,
      "grabbed": 923,
      "Don": 924,
      "In": 925,
      "sleep": 926,
      "tw": 927,
      "yummy": 928,
      "There": 929,
      "ary": 930,
      "okay": 931,
      "why": 932,
      "kid": 933,
      "sound": 934,
      "tr": 935,
      "rest": 936,
      "surprise": 937,
      "yellow": 938,
      "dri": 939,
      "hind": 940,
      "mum": 941,
      "having": 942,
      "ings": 943,
      "food": 944,
      "leaves": 945,
      "ped": 946,
      "sn": 947,
      "slow": 948,
      "cked": 949,
      "ign": 950,
      "stop": 951,
      "cream": 952,
      "jumped": 953,
      "dro": 954,
      "med": 955,
      "behind": 956,
      "pot": 957,
      "dren": 958,
      "children": 959,
      "Hello": 960,
      "ff": 961,
      "plan": 962,
      "ung": 963,
      "race": 964,
      "move": 965,
      "thank": 966,
      "running": 967,
      "fix": 968,
      "blocks": 969,
      "Wh": 970,
      "Wow": 971,
      "iss": 972,
      "plied": 973,
      "fell": 974,
      "prin": 975,
      "carefully": 976,
      "showed": 977,
      "cont": 978,
      "kids": 979,
      "Jill": 980,
      "pare": 981,
      "yard": 982,
      "anc": 983,
      "replied": 984,
      "someone": 985,
      "reached": 986,
      "favor": 987,
      "din": 988,
      "ph": 989,
      "ons": 990,
      "being": 991,
      "shed": 992,
      "lic": 993,
      "grand": 994,
      "To": 995,
      "ather": 996,
      "tow": 997,
      "only": 998,
      "full": 999,
      "smiles": 1000,
      "wonderful": 1001,
      "teacher": 1002,
      "favorite": 1003,
      "fight": 1004,
      "hor": 1005,
      "met": 1006,
      "pre": 1007,
      "wished": 1008,
      "wel": 1009,
      "col": 1010,
      "cook": 1011,
      "que": 1012,
      "flower": 1013,
      "coming": 1014,
      "Jimmy": 1015,
      "cla": 1016,
      "ies": 1017,
      "nts": 1018,
      "pet": 1019,
      "tor": 1020,
      "years": 1021,
      "filled": 1022,
      "ba": 1023,
      "wrong": 1024,
      "wear": 1025,
      "catch": 1026,
      "import": 1027,
      "important": 1028,
      "hid": 1029,
      "high": 1030,
      "kite": 1031,
      "mess": 1032,
      "ond": 1033,
      "soft": 1034,
      "deep": 1035,
      "tail": 1036,
      "parents": 1037,
      "Jen": 1038,
      "bag": 1039,
      "pro": 1040,
      "reed": 1041,
      "story": 1042,
      "birds": 1043,
      "surprised": 1044,
      "fire": 1045,
      "draw": 1046,
      "fro": 1047,
      "land": 1048,
      "might": 1049,
      "please": 1050,
      "sit": 1051,
      "ined": 1052,
      "ated": 1053,
      "oken": 1054,
      "bigger": 1055,
      "friendly": 1056,
      "hold": 1057,
      "cool": 1058,
      "helped": 1059,
      "makes": 1060,
      "close": 1061,
      "trees": 1062,
      "touch": 1063,
      "Some": 1064,
      "ment": 1065,
      "ens": 1066,
      "sec": 1067,
      "wants": 1068,
      "broken": 1069,
      "delic": 1070,
      "anything": 1071,
      "magical": 1072,
      "butterfly": 1073,
      "Em": 1074,
      "bran": 1075,
      "done": 1076,
      "hill": 1077,
      "ued": 1078,
      "zy": 1079,
      "really": 1080,
      "sail": 1081,
      "most": 1082,
      "worry": 1083,
      "anger": 1084,
      "wood": 1085,
      "lesson": 1086,
      "realized": 1087,
      "break": 1088,
      "strange": 1089,
      "secret": 1090,
      "Mummy": 1091,
      "cake": 1092,
      "gone": 1093,
      "tall": 1094,
      "hair": 1095,
      "sat": 1096,
      "irt": 1097,
      "pping": 1098,
      "else": 1099,
      "happily": 1100,
      "agreed": 1101,
      "himself": 1102,
      "everything": 1103,
      "dream": 1104,
      "cray": 1105,
      "appear": 1106,
      "enjoyed": 1107,
      "remembered": 1108,
      "contin": 1109,
      "horse": 1110,
      "\".": 1111,
      "cried": 1112,
      "ps": 1113,
      "pur": 1114,
      "sign": 1115,
      "arri": 1116,
      "ild": 1117,
      "ames": 1118,
      "cover": 1119,
      "aby": 1120,
      "making": 1121,
      "talk": 1122,
      "continued": 1123,
      "All": 1124,
      "Be": 1125,
      "Come": 1126,
      "cut": 1127,
      "gs": 1128,
      "vis": 1129,
      "another": 1130,
      "art": 1131,
      "bee": 1132,
      "ater": 1133,
      "ves": 1134,
      "store": 1135,
      "blan": 1136,
      "white": 1137,
      "swim": 1138,
      "finally": 1139,
      "amazing": 1140,
      "followed": 1141,
      "At": 1142,
      "Spot": 1143,
      "fru": 1144,
      "oo": 1145,
      "pond": 1146,
      "ually": 1147,
      "ins": 1148,
      "wall": 1149,
      "fair": 1150,
      "worked": 1151,
      "juice": 1152,
      "understand": 1153,
      "asks": 1154,
      "climb": 1155,
      "pictures": 1156,
      "Fin": 1157,
      "Go": 1158,
      "OK": 1159,
      "chen": 1160,
      "far": 1161,
      "kit": 1162,
      "mat": 1163,
      "mine": 1164,
      "held": 1165,
      "oup": 1166,
      "herself": 1167,
      "key": 1168,
      "lion": 1169,
      "funny": 1170,
      "wards": 1171,
      "amazed": 1172,
      "floor": 1173,
      "kitchen": 1174,
      "uff": 1175,
      "ance": 1176,
      "Benny": 1177,
      "rub": 1178,
      "getting": 1179,
      "black": 1180,
      "stepped": 1181,
      "colors": 1182,
      "monster": 1183,
      "slowly": 1184,
      "arrived": 1185,
      "Ju": 1186,
      "bar": 1187,
      "baby": 1188,
      "tle": 1189,
      "sear": 1190,
      "rag": 1191,
      "rank": 1192,
      "Daddy": 1193,
      "climbed": 1194,
      "thinks": 1195,
      "morning": 1196,
      "Why": 1197,
      "Oh": 1198,
      "free": 1199,
      "gent": 1200,
      "hung": 1201,
      "mou": 1202,
      "pack": 1203,
      "row": 1204,
      "song": 1205,
      "tri": 1206,
      "tight": 1207,
      "ange": 1208,
      "asure": 1209,
      "bucket": 1210,
      "creat": 1211,
      "books": 1212,
      "pulled": 1213,
      "prince": 1214,
      "dinner": 1215,
      "mind": 1216,
      "pat": 1217,
      "ister": 1218,
      "ats": 1219,
      "plain": 1220,
      "forgot": 1221,
      "roll": 1222,
      "ours": 1223,
      "ventually": 1224,
      "stayed": 1225,
      "spot": 1226,
      "appeared": 1227,
      "Sally": 1228,
      "dry": 1229,
      "em": 1230,
      "ike": 1231,
      "iet": 1232,
      "kay": 1233,
      "ng": 1234,
      "pers": 1235,
      "pink": 1236,
      "alone": 1237,
      "wet": 1238,
      "hopped": 1239,
      "mother": 1240,
      "quiet": 1241,
      "takes": 1242,
      "tast": 1243,
      "faster": 1244,
      "shoes": 1245,
      "window": 1246,
      "spoon": 1247,
      "delicious": 1248,
      "branch": 1249,
      "cor": 1250,
      "sister": 1251,
      "tra": 1252,
      "ze": 1253,
      "enough": 1254,
      "nee": 1255,
      "few": 1256,
      "icy": 1257,
      "naught": 1258,
      "stone": 1259,
      "brought": 1260,
      "cast": 1261,
      "poin": 1262,
      "cloud": 1263,
      "listened": 1264,
      "finished": 1265,
      "cup": 1266,
      "del": 1267,
      "danger": 1268,
      "fall": 1269,
      "gi": 1270,
      "ire": 1271,
      "kitt": 1272,
      "lone": 1273,
      "scho": 1274,
      "silly": 1275,
      "rel": 1276,
      "ises": 1277,
      "lost": 1278,
      "stre": 1279,
      "add": 1280,
      "shine": 1281,
      "moment": 1282,
      "rock": 1283,
      "nap": 1284,
      "stories": 1285,
      "feels": 1286,
      "runs": 1287,
      "longer": 1288,
      "trying": 1289,
      "lonely": 1290,
      "school": 1291,
      "Hi": 1292,
      "cand": 1293,
      "farm": 1294,
      "hide": 1295,
      "ple": 1296,
      "pes": 1297,
      "pie": 1298,
      "wr": 1299,
      "bot": 1300,
      "ross": 1301,
      "grow": 1302,
      "dolls": 1303,
      "needed": 1304,
      "adventures": 1305,
      "flash": 1306,
      "bath": 1307,
      "visit": 1308,
      "Finally": 1309,
      "Amy": 1310,
      "Little": 1311,
      "Sure": 1312,
      "ak": 1313,
      "av": 1314,
      "fig": 1315,
      "lly": 1316,
      "sent": 1317,
      "towards": 1318,
      "same": 1319,
      "str": 1320,
      "sometimes": 1321,
      "hoped": 1322,
      "flying": 1323,
      "paper": 1324,
      "swing": 1325,
      "pull": 1326,
      "snack": 1327,
      "blanket": 1328,
      "naughty": 1329,
      "piece": 1330,
      "bun": 1331,
      "bble": 1332,
      "danc": 1333,
      "ot": 1334,
      "sand": 1335,
      "spl": 1336,
      "whis": 1337,
      "thes": 1338,
      "ton": 1339,
      "wasn": 1340,
      "shion": 1341,
      "spark": 1342,
      "fect": 1343,
      "explain": 1344,
      "gem": 1345,
      "cushion": 1346,
      "closed": 1347,
      "perfect": 1348,
      "child": 1349,
      "party": 1350,
      "frog": 1351,
      "Billy": 1352,
      "craw": 1353,
      "jar": 1354,
      "rink": 1355,
      "waited": 1356,
      "leph": 1357,
      "neigh": 1358,
      "scary": 1359,
      "build": 1360,
      "mail": 1361,
      "kitty": 1362,
      "flashlight": 1363,
      "pow": 1364,
      "prom": 1365,
      "sack": 1366,
      "orange": 1367,
      "teddy": 1368,
      "backyard": 1369,
      "seemed": 1370,
      "others": 1371,
      "brown": 1372,
      "caught": 1373,
      "clothes": 1374,
      "Soon": 1375,
      "Andy": 1376,
      "exploring": 1377,
      "bugs": 1378,
      "turned": 1379,
      "driver": 1380,
      "uffy": 1381,
      "hungry": 1382,
      "figure": 1383,
      "Le": 1384,
      "My": 1385,
      "des": 1386,
      "gl": 1387,
      "whe": 1388,
      "wand": 1389,
      "doing": 1390,
      "fox": 1391,
      "shared": 1392,
      "crying": 1393,
      "colorful": 1394,
      "penny": 1395,
      "tower": 1396,
      "clapped": 1397,
      "crayons": 1398,
      "mouth": 1399,
      "dangerous": 1400,
      "Gr": 1401,
      "Mary": 1402,
      "ach": 1403,
      "lake": 1404,
      "pill": 1405,
      "Their": 1406,
      "thre": 1407,
      "net": 1408,
      "noises": 1409,
      "smel": 1410,
      "smart": 1411,
      "ull": 1412,
      "hugs": 1413,
      "join": 1414,
      "buy": 1415,
      "path": 1416,
      "gives": 1417,
      "treasure": 1418,
      "wondered": 1419,
      "across": 1420,
      "coun": 1421,
      "woods": 1422,
      "bunny": 1423,
      "How": 1424,
      "Okay": 1425,
      "ced": 1426,
      "cir": 1427,
      "ix": 1428,
      "knee": 1429,
      "snow": 1430,
      "relie": 1431,
      "belong": 1432,
      "igg": 1433,
      "young": 1434,
      "ching": 1435,
      "fork": 1436,
      "shapes": 1437,
      "comes": 1438,
      "bush": 1439,
      "cheered": 1440,
      "paint": 1441,
      "turns": 1442,
      "grandma": 1443,
      "cookies": 1444,
      "castle": 1445,
      "Grand": 1446,
      "threw": 1447,
      "Elly": 1448,
      "TV": 1449,
      "du": 1450,
      "eleph": 1451,
      "fur": 1452,
      "kno": 1453,
      "min": 1454,
      "pea": 1455,
      "sy": 1456,
      "today": 1457,
      "ining": 1458,
      "ones": 1459,
      "idge": 1460,
      "log": 1461,
      "irrel": 1462,
      "belie": 1463,
      "sea": 1464,
      "unch": 1465,
      "chick": 1466,
      "meet": 1467,
      "stars": 1468,
      "stood": 1469,
      "grate": 1470,
      "worried": 1471,
      "words": 1472,
      "mus": 1473,
      "ches": 1474,
      "trucks": 1475,
      "loves": 1476,
      "squirrel": 1477,
      "present": 1478,
      "welcome": 1479,
      "Just": 1480,
      "grateful": 1481,
      "bus": 1482,
      "dir": 1483,
      "drag": 1484,
      "je": 1485,
      "kiss": 1486,
      "os": 1487,
      "pass": 1488,
      "soup": 1489,
      "hes": 1490,
      "oun": 1491,
      "ilk": 1492,
      "ider": 1493,
      "letter": 1494,
      "amp": 1495,
      "river": 1496,
      "well": 1497,
      "living": 1498,
      "goes": 1499,
      "happen": 1500,
      "smell": 1501,
      "hot": 1502,
      "epend": 1503,
      "must": 1504,
      "bled": 1505,
      "pocket": 1506,
      "ears": 1507,
      "ize": 1508,
      "such": 1509,
      "arms": 1510,
      "Emma": 1511,
      "splash": 1512,
      "promised": 1513,
      "relieved": 1514,
      "elephant": 1515,
      "dirty": 1516,
      "ben": 1517,
      "bru": 1518,
      "cour": 1519,
      "drink": 1520,
      "ich": 1521,
      "lunch": 1522,
      "milk": 1523,
      "pra": 1524,
      "rid": 1525,
      "heav": 1526,
      "iting": 1527,
      "ation": 1528,
      "goat": 1529,
      "smoo": 1530,
      "smiling": 1531,
      "everywhere": 1532,
      "woke": 1533,
      "beach": 1534,
      "suddenly": 1535,
      "moral": 1536,
      "Inside": 1537,
      "twins": 1538,
      "drove": 1539,
      "person": 1540,
      "write": 1541,
      "explained": 1542,
      "peace": 1543,
      "smooth": 1544,
      "Frank": 1545,
      "Where": 1546,
      "blow": 1547,
      "bite": 1548,
      "cave": 1549,
      "ctor": 1550,
      "fused": 1551,
      "gather": 1552,
      "luck": 1553,
      "mill": 1554,
      "tur": 1555,
      "wra": 1556,
      "left": 1557,
      "imag": 1558,
      "adow": 1559,
      "doctor": 1560,
      "meadow": 1561,
      "daddy": 1562,
      "comet": 1563,
      "taking": 1564,
      "sunshine": 1565,
      "Together": 1566,
      "gentle": 1567,
      "princess": 1568,
      "patient": 1569,
      "clouds": 1570,
      "believe": 1571,
      "course": 1572,
      "Please": 1573,
      "cal": 1574,
      "eventually": 1575,
      "fie": 1576,
      "hours": 1577,
      "pol": 1578,
      "ride": 1579,
      "ser": 1580,
      "answ": 1581,
      "lock": 1582,
      "thday": 1583,
      "itting": 1584,
      "shop": 1585,
      "ugg": 1586,
      "oney": 1587,
      "puts": 1588,
      "dest": 1589,
      "push": 1590,
      "hears": 1591,
      "stead": 1592,
      "purse": 1593,
      "covered": 1594,
      "creature": 1595,
      "neighbor": 1596,
      "circle": 1597,
      "Give": 1598,
      "Mum": 1599,
      "fan": 1600,
      "fing": 1601,
      "mer": 1602,
      "mir": 1603,
      "miss": 1604,
      "pil": 1605,
      "pir": 1606,
      "scre": 1607,
      "sitting": 1608,
      "win": 1609,
      "wash": 1610,
      "stu": 1611,
      "Hey": 1612,
      "nose": 1613,
      "plane": 1614,
      "myster": 1615,
      "eter": 1616,
      "shirt": 1617,
      "rocks": 1618,
      "gest": 1619,
      "moved": 1620,
      "cop": 1621,
      "hello": 1622,
      "seek": 1623,
      "fold": 1624,
      "helping": 1625,
      "case": 1626,
      "cape": 1627,
      "which": 1628,
      "pushed": 1629,
      "comfor": 1630,
      "shook": 1631,
      "broke": 1632,
      "throw": 1633,
      "fridge": 1634,
      "queen": 1635,
      "Sometimes": 1636,
      "Leo": 1637,
      "music": 1638,
      "bench": 1639,
      "heavy": 1640,
      "Of": 1641,
      "bike": 1642,
      "boun": 1643,
      "chas": 1644,
      "dance": 1645,
      "ek": 1646,
      "fit": 1647,
      "mis": 1648,
      "ming": 1649,
      "mad": 1650,
      "oc": 1651,
      "ror": 1652,
      "œI": 1653,
      "ence": 1654,
      "along": 1655,
      "though": 1656,
      "bel": 1657,
      "bell": 1658,
      "ighed": 1659,
      "sol": 1660,
      "without": 1661,
      "upset": 1662,
      "owl": 1663,
      "ents": 1664,
      "shr": 1665,
      "button": 1666,
      "spider": 1667,
      "start": 1668,
      "birthday": 1669,
      "shar": 1670,
      "chest": 1671,
      "eating": 1672,
      "blem": 1673,
      "swings": 1674,
      "crack": 1675,
      "heart": 1676,
      "stronger": 1677,
      "apple": 1678,
      "laughing": 1679,
      "sleepy": 1680,
      "sounds": 1681,
      "holding": 1682,
      "Good": 1683,
      "tasted": 1684,
      "Jake": 1685,
      "James": 1686,
      "Later": 1687,
      "di": 1688,
      "gar": 1689,
      "glow": 1690,
      "hig": 1691,
      "kick": 1692,
      "mummy": 1693,
      "mix": 1694,
      "ned": 1695,
      "nic": 1696,
      "ten": 1697,
      "tiny": 1698,
      "vide": 1699,
      "repe": 1700,
      "ery": 1701,
      "onto": 1702,
      "lemon": 1703,
      "thy": 1704,
      "thin": 1705,
      "nothing": 1706,
      "vest": 1707,
      "shes": 1708,
      "card": 1709,
      "umb": 1710,
      "loops": 1711,
      "foot": 1712,
      "exciting": 1713,
      "bring": 1714,
      "return": 1715,
      "job": 1716,
      "watching": 1717,
      "singing": 1718,
      "marble": 1719,
      "dropped": 1720,
      "Jenny": 1721,
      "problem": 1722,
      "crawl": 1723,
      "power": 1724,
      "dragon": 1725,
      "mirror": 1726,
      "garage": 1727,
      "Fl": 1728,
      "Sor": 1729,
      "cur": 1730,
      "dle": 1731,
      "gum": 1732,
      "gigg": 1733,
      "hi": 1734,
      "round": 1735,
      "sli": 1736,
      "tun": 1737,
      "val": 1738,
      "respec": 1739,
      "ith": 1740,
      "ener": 1741,
      "ont": 1742,
      "stir": 1743,
      "stuck": 1744,
      "stair": 1745,
      "ney": 1746,
      "ute": 1747,
      "att": 1748,
      "plant": 1749,
      "witch": 1750,
      "live": 1751,
      "forget": 1752,
      "shining": 1753,
      "ular": 1754,
      "raz": 1755,
      "hope": 1756,
      "spe": 1757,
      "spent": 1758,
      "coin": 1759,
      "cozy": 1760,
      "lla": 1761,
      "whole": 1762,
      "tape": 1763,
      "ward": 1764,
      "chew": 1765,
      "clever": 1766,
      "places": 1767,
      "painter": 1768,
      "Help": 1769,
      "front": 1770,
      "chain": 1771,
      "squash": 1772,
      "colle": 1773,
      "cute": 1774,
      "fairy": 1775,
      "Grandma": 1776,
      "comfortable": 1777,
      "higher": 1778,
      "Fluffy": 1779,
      "Sorry": 1780,
      "With": 1781,
      "af": 1782,
      "dist": 1783,
      "duck": 1784,
      "fu": 1785,
      "gho": 1786,
      "hang": 1787,
      "ipped": 1788,
      "late": 1789,
      "later": 1790,
      "tain": 1791,
      "tie": 1792,
      "vi": 1793,
      "wish": 1794,
      "instead": 1795,
      "rela": 1796,
      "remind": 1797,
      "kes": 1798,
      "cele": 1799,
      "adm": 1800,
      "uni": 1801,
      "asleep": 1802,
      "rope": 1803,
      "helpful": 1804,
      "pool": 1805,
      "skip": 1806,
      "Letâ": 1807,
      "showing": 1808,
      "pudd": 1809,
      "berry": 1810,
      "bald": 1811,
      "block": 1812,
      "pretended": 1813,
      "trou": 1814,
      "purple": 1815,
      "trip": 1816,
      "rolled": 1817,
      "spotted": 1818,
      "pieces": 1819,
      "whisper": 1820,
      "chickens": 1821,
      "busy": 1822,
      "pract": 1823,
      "gathered": 1824,
      "lucky": 1825,
      "field": 1826,
      "ghost": 1827,
      "relax": 1828,
      "Ali": 1829,
      "Char": 1830,
      "If": 1831,
      "aw": 1832,
      "cran": 1833,
      "ese": 1834,
      "hit": 1835,
      "ier": 1836,
      "lid": 1837,
      "pour": 1838,
      "rm": 1839,
      "wise": 1840,
      "ye": 1841,
      "zz": 1842,
      "anut": 1843,
      "inte": 1844,
      "nods": 1845,
      "rib": 1846,
      "life": 1847,
      "spin": 1848,
      "feet": 1849,
      "starts": 1850,
      "storm": 1851,
      "rude": 1852,
      "huge": 1853,
      "gets": 1854,
      "pebble": 1855,
      "peanut": 1856,
      "skin": 1857,
      "taste": 1858,
      "sunny": 1859,
      "reach": 1860,
      "crown": 1861,
      "ntain": 1862,
      "ancient": 1863,
      "town": 1864,
      "fighting": 1865,
      "mighty": 1866,
      "barr": 1867,
      "songs": 1868,
      "embarr": 1869,
      "street": 1870,
      "candy": 1871,
      "farmer": 1872,
      "smelly": 1873,
      "brush": 1874,
      "shrimp": 1875,
      "respect": 1876,
      "razor": 1877,
      "speed": 1878,
      "interest": 1879,
      "Ella": 1880,
      "Me": 1881,
      "Pa": 1882,
      "Ted": 1883,
      "eg": 1884,
      "eas": 1885,
      "gas": 1886,
      "games": 1887,
      "lit": 1888,
      "nam": 1889,
      "pig": 1890,
      "sick": 1891,
      "tid": 1892,
      "teach": 1893,
      "train": 1894,
      "vill": 1895,
      "wings": 1896,
      "reli": 1897,
      "erpill": 1898,
      "string": 1899,
      "ornam": 1900,
      "Here": 1901,
      "seed": 1902,
      "neck": 1903,
      "escape": 1904,
      "days": 1905,
      "forgive": 1906,
      "raid": 1907,
      "ager": 1908,
      "owner": 1909,
      "nail": 1910,
      "excite": 1911,
      "mule": 1912,
      "Everywhere": 1913,
      "dead": 1914,
      "anyone": 1915,
      "caterpill": 1916,
      "ladder": 1917,
      "cheese": 1918,
      "shore": 1919,
      "confused": 1920,
      "tells": 1921,
      "disappeared": 1922,
      "rainbow": 1923,
      "frown": 1924,
      "sticks": 1925,
      "touched": 1926,
      "market": 1927,
      "Today": 1928,
      "quest": 1929,
      "fruit": 1930,
      "pointed": 1931,
      "giant": 1932,
      "desk": 1933,
      "furry": 1934,
      "knocked": 1935,
      "pirate": 1936,
      "mysterious": 1937,
      "stairs": 1938,
      "afraid": 1939,
      "fuel": 1940,
      "celebr": 1941,
      "crane": 1942,
      "tidy": 1943,
      "village": 1944,
      "reliable": 1945,
      "ornaments": 1946,
      "excitement": 1947,
      "caterpillar": 1948,
      "Fred": 1949,
      "Gary": 1950,
      "Grace": 1951,
      "Whe": 1952,
      "ail": 1953,
      "ast": 1954,
      "ee": 1955,
      "eager": 1956,
      "gy": 1957,
      "jet": 1958,
      "jour": 1959,
      "jung": 1960,
      "lf": 1961,
      "line": 1962,
      "sour": 1963,
      "wide": 1964,
      "yach": 1965,
      "heal": 1966,
      "sting": 1967,
      "stret": 1968,
      "beet": 1969,
      "become": 1970,
      "veil": 1971,
      "playground": 1972,
      "shy": 1973,
      "note": 1974,
      "spit": 1975,
      "carro": 1976,
      "cannot": 1977,
      "moving": 1978,
      "icine": 1979,
      "word": 1980,
      "wore": 1981,
      "grew": 1982,
      "cheer": 1983,
      "assed": 1984,
      "blew": 1985,
      "slid": 1986,
      "waiting": 1987,
      "bowl": 1988,
      "chair": 1989,
      "nearby": 1990,
      "drive": 1991,
      "medicine": 1992,
      "While": 1993,
      "crayon": 1994,
      "swimming": 1995,
      "match": 1996,
      "matter": 1997,
      "corner": 1998,
      "calm": 1999,
      "answer": 2000,
      "screamed": 2001,
      "returned": 2002,
      "embarrassed": 2003,
      "interesting": 2004,
      "journey": 2005,
      "jungle": 2006,
      "yacht": 2007,
      "Are": 2008,
      "Eventually": 2009,
      "Sand": 2010,
      "Stop": 2011,
      "Who": 2012,
      "cil": 2013,
      "cries": 2014,
      "cage": 2015,
      "eth": 2016,
      "gif": 2017,
      "money": 2018,
      "nie": 2019,
      "pin": 2020,
      "pop": 2021,
      "sug": 2022,
      "tu": 2023,
      "tro": 2024,
      "tick": 2025,
      "ual": 2026,
      "vine": 2027,
      "tory": 2028,
      "res": 2029,
      "eri": 2030,
      "eng": 2031,
      "ident": 2032,
      "legs": 2033,
      "stum": 2034,
      "orm": 2035,
      "weather": 2036,
      "ased": 2037,
      "aser": 2038,
      "body": 2039,
      "shout": 2040,
      "rose": 2041,
      "roof": 2042,
      "spread": 2043,
      "feather": 2044,
      "ured": 2045,
      "seem": 2046,
      "wouldn": 2047,
      "group": 2048,
      "pole": 2049,
      "bubble": 2050,
      "harbor": 2051,
      "ions": 2052,
      "picks": 2053,
      "past": 2054,
      "berries": 2055,
      "hurts": 2056,
      "suit": 2057,
      "keeper": 2058,
      "picnic": 2059,
      "teeth": 2060,
      "bored": 2061,
      "pencil": 2062,
      "standing": 2063,
      "stranger": 2064,
      "brightly": 2065,
      "metal": 2066,
      "colour": 2067,
      "wearing": 2068,
      "search": 2069,
      "freez": 2070,
      "gently": 2071,
      "strated": 2072,
      "snacks": 2073,
      "danced": 2074,
      "wheel": 2075,
      "peaceful": 2076,
      "turtle": 2077,
      "study": 2078,
      "beetle": 2079,
      "Sandy": 2080,
      "Peter": 2081,
      "act": 2082,
      "band": 2083,
      "bas": 2084,
      "bway": 2085,
      "cce": 2086,
      "fli": 2087,
      "hic": 2088,
      "ipping": 2089,
      "lar": 2090,
      "ose": 2091,
      "pile": 2092,
      "heli": 2093,
      "anic": 2094,
      "tom": 2095,
      "towel": 2096,
      "era": 2097,
      "ert": 2098,
      "leop": 2099,
      "loom": 2100,
      "thumb": 2101,
      "vehic": 2102,
      "ppo": 2103,
      "playful": 2104,
      "ult": 2105,
      "hook": 2106,
      "hopping": 2107,
      "spicy": 2108,
      "cane": 2109,
      "moon": 2110,
      "?\".": 2111,
      "olin": 2112,
      "usual": 2113,
      "cloth": 2114,
      "taught": 2115,
      "clu": 2116,
      "lovely": 2117,
      "saying": 2118,
      "cube": 2119,
      "selfish": 2120,
      "leaf": 2121,
      "subway": 2122,
      "faces": 2123,
      "balloons": 2124,
      "part": 2125,
      "boring": 2126,
      "acc": 2127,
      "pengu": 2128,
      "cookie": 2129,
      "hiding": 2130,
      "frustrated": 2131,
      "stones": 2132,
      "bottom": 2133,
      "dancing": 2134,
      "sandw": 2135,
      "sparkly": 2136,
      "belonged": 2137,
      "ependable": 2138,
      "polite": 2139,
      "shopkeeper": 2140,
      "fancy": 2141,
      "copter": 2142,
      "sharp": 2143,
      "curtain": 2144,
      "hippo": 2145,
      "violin": 2146,
      "puddle": 2147,
      "suitcase": 2148,
      "helicopter": 2149,
      "leopard": 2150,
      "Even": 2151,
      "Polly": 2152,
      "Rac": 2153,
      "ap": 2154,
      "bitt": 2155,
      "bought": 2156,
      "da": 2157,
      "dirt": 2158,
      "fre": 2159,
      "gener": 2160,
      "kn": 2161,
      "mid": 2162,
      "pas": 2163,
      "ray": 2164,
      "sc": 2165,
      "swa": 2166,
      "sup": 2167,
      "shad": 2168,
      "sang": 2169,
      "scream": 2170,
      "sighed": 2171,
      "tears": 2172,
      "vous": 2173,
      "wom": 2174,
      "wro": 2175,
      "these": 2176,
      "tomor": 2177,
      "ination": 2178,
      "wag": 2179,
      "wake": 2180,
      "sau": 2181,
      "step": 2182,
      "organ": 2183,
      "ird": 2184,
      "ness": 2185,
      "utes": 2186,
      "vel": 2187,
      "cept": 2188,
      "weak": 2189,
      "board": 2190,
      "shroom": 2191,
      "road": 2192,
      "spa": 2193,
      "sport": 2194,
      "coat": 2195,
      "rushed": 2196,
      "mushroom": 2197,
      "forever": 2198,
      "class": 2199,
      "inky": 2200,
      "smaller": 2201,
      "trust": 2202,
      "selves": 2203,
      "umpy": 2204,
      "puzz": 2205,
      "bears": 2206,
      "finish": 2207,
      "monkey": 2208,
      "chocol": 2209,
      "discover": 2210,
      "enjoying": 2211,
      "frame": 2212,
      "stickers": 2213,
      "nervous": 2214,
      "chase": 2215,
      "breath": 2216,
      "sounded": 2217,
      "trade": 2218,
      "thankful": 2219,
      "fixed": 2220,
      "messy": 2221,
      "landed": 2222,
      "June": 2223,
      "searched": 2224,
      "bathroom": 2225,
      "minutes": 2226,
      "wrapped": 2227,
      "lemonade": 2228,
      "tuna": 2229,
      "attic": 2230,
      "reminded": 2231,
      "trouble": 2232,
      "Whenever": 2233,
      "freezer": 2234,
      "basket": 2235,
      "flies": 2236,
      "accident": 2237,
      "Rachel": 2238,
      "bitter": 2239,
      "generous": 2240,
      "middle": 2241,
      "passport": 2242,
      "swam": 2243,
      "woman": 2244,
      "wrote": 2245,
      "tomorrow": 2246,
      "chocolate": 2247,
      "End": 2248,
      "Sop": 2249,
      "bing": 2250,
      "crab": 2251,
      "fence": 2252,
      "ga": 2253,
      "hie": 2254,
      "lamp": 2255,
      "obed": 2256,
      "port": 2257,
      "tt": 2258,
      "wis": 2259,
      "wip": 2260,
      "yaw": 2261,
      "œLetâ": 2262,
      "ines": 2263,
      "eraser": 2264,
      "aring": 2265,
      "arrow": 2266,
      "sage": 2267,
      "leg": 2268,
      "lead": 2269,
      "stamp": 2270,
      "alous": 2271,
      "sell": 2272,
      "ature": 2273,
      "undry": 2274,
      "lif": 2275,
      "lip": 2276,
      "chang": 2277,
      "chanic": 2278,
      "asking": 2279,
      "boo": 2280,
      "rocket": 2281,
      "exam": 2282,
      "mechanic": 2283,
      "umber": 2284,
      "iches": 2285,
      "last": 2286,
      "laundry": 2287,
      "ruined": 2288,
      "scarf": 2289,
      "bedroom": 2290,
      "polog": 2291,
      "mach": 2292,
      "true": 2293,
      "donâ": 2294,
      "jumping": 2295,
      "treats": 2296,
      "spoke": 2297,
      "ughter": 2298,
      "painted": 2299,
      "talking": 2300,
      "float": 2301,
      "couch": 2302,
      "phone": 2303,
      "Emily": 2304,
      "sailed": 2305,
      "breakfast": 2306,
      "fruits": 2307,
      "rubbed": 2308,
      "searching": 2309,
      "packed": 2310,
      "pointing": 2311,
      "whenever": 2312,
      "ducks": 2313,
      "jealous": 2314,
      "circles": 2315,
      "finger": 2316,
      "football": 2317,
      "admire": 2318,
      "engine": 2319,
      "sandwiches": 2320,
      "daughter": 2321,
      "Sophie": 2322,
      "obedient": 2323,
      "Al": 2324,
      "Dan": 2325,
      "Hen": 2326,
      "Ow": 2327,
      "Tru": 2328,
      "ahead": 2329,
      "apolog": 2330,
      "bone": 2331,
      "bull": 2332,
      "cad": 2333,
      "diz": 2334,
      "drank": 2335,
      "fake": 2336,
      "gate": 2337,
      "ife": 2338,
      "jack": 2339,
      "ling": 2340,
      "oom": 2341,
      "osa": 2342,
      "oce": 2343,
      "oting": 2344,
      "pec": 2345,
      "rs": 2346,
      "rake": 2347,
      "rise": 2348,
      "sco": 2349,
      "sight": 2350,
      "spla": 2351,
      "tent": 2352,
      "tec": 2353,
      "uable": 2354,
      "wol": 2355,
      "inv": 2356,
      "iness": 2357,
      "inoc": 2358,
      "env": 2359,
      "isted": 2360,
      "saving": 2361,
      "illi": 2362,
      "bees": 2363,
      "kets": 2364,
      "veget": 2365,
      "shell": 2366,
      "adi": 2367,
      "sold": 2368,
      "week": 2369,
      "unk": 2370,
      "unusual": 2371,
      "liver": 2372,
      "moms": 2373,
      "ugly": 2374,
      "spend": 2375,
      "fear": 2376,
      "extra": 2377,
      "independ": 2378,
      "mole": 2379,
      "grumpy": 2380,
      "yours": 2381,
      "brilli": 2382,
      "Joy": 2383,
      "knowing": 2384,
      "jog": 2385,
      "ables": 2386,
      "buil": 2387,
      "tak": 2388,
      "shows": 2389,
      "needs": 2390,
      "explored": 2391,
      "calling": 2392,
      "treat": 2393,
      "shocked": 2394,
      "boats": 2395,
      "understood": 2396,
      "lights": 2397,
      "flag": 2398,
      "fluffy": 2399,
      "flute": 2400,
      "safely": 2401,
      "parade": 2402,
      "sings": 2403,
      "talked": 2404,
      "airport": 2405,
      "twist": 2406,
      "planet": 2407,
      "protec": 2408,
      "sailor": 2409,
      "Beep": 2410,
      "package": 2411,
      "tasty": 2412,
      "giving": 2413,
      "crawled": 2414,
      "wandered": 2415,
      "letters": 2416,
      "uggled": 2417,
      "pushing": 2418,
      "chased": 2419,
      "repeats": 2420,
      "valuable": 2421,
      "Charlie": 2422,
      "stumbled": 2423,
      "penguin": 2424,
      "fresh": 2425,
      "knife": 2426,
      "shadow": 2427,
      "accidentally": 2428,
      "changed": 2429,
      "Danny": 2430,
      "Henry": 2431,
      "dizzy": 2432,
      "jacket": 2433,
      "osaur": 2434,
      "ocean": 2435,
      "wolf": 2436,
      "vegetables": 2437,
      "independent": 2438,
      "brilliant": 2439,
      "Binky": 2440,
      "Den": 2441,
      "Iâ": 2442,
      "Nex": 2443,
      "Snow": 2444,
      "See": 2445,
      "Will": 2446,
      "avo": 2447,
      "bark": 2448,
      "cone": 2449,
      "est": 2450,
      "fic": 2451,
      "gular": 2452,
      "hive": 2453,
      "hanger": 2454,
      "iers": 2455,
      "jel": 2456,
      "kin": 2457,
      "lery": 2458,
      "mel": 2459,
      "maybe": 2460,
      "pit": 2461,
      "pty": 2462,
      "rh": 2463,
      "rare": 2464,
      "rug": 2465,
      "tries": 2466,
      "tied": 2467,
      "wild": 2468,
      "zag": 2469,
      "zip": 2470,
      "zoo": 2471,
      "zoom": 2472,
      "toug": 2473,
      "toast": 2474,
      "ince": 2475,
      "recor": 2476,
      "regular": 2477,
      "ense": 2478,
      "These": 2479,
      "island": 2480,
      "ilty": 2481,
      "leash": 2482,
      "aled": 2483,
      "separ": 2484,
      "nod": 2485,
      "celery": 2486,
      "igzag": 2487,
      "plate": 2488,
      "lying": 2489,
      "rior": 2490,
      "rich": 2491,
      "goal": 2492,
      "form": 2493,
      "forward": 2494,
      "boss": 2495,
      "shone": 2496,
      "biggest": 2497,
      "spill": 2498,
      "carried": 2499,
      "meant": 2500,
      "helmet": 2501,
      "fac": 2502,
      "lace": 2503,
      "mud": 2504,
      "birdcage": 2505,
      "decide": 2506,
      "yourself": 2507,
      "ourite": 2508,
      "shake": 2509,
      "Jacky": 2510,
      "angle": 2511,
      "angel": 2512,
      "ately": 2513,
      "sorts": 2514,
      "skipped": 2515,
      "earth": 2516,
      "useful": 2517,
      "ief": 2518,
      "drew": 2519,
      "houses": 2520,
      "warrior": 2521,
      "nicely": 2522,
      "harder": 2523,
      "reading": 2524,
      "kinds": 2525,
      "leaving": 2526,
      "famous": 2527,
      "ction": 2528,
      "blueberries": 2529,
      "chose": 2530,
      "diffic": 2531,
      "laughs": 2532,
      "cherry": 2533,
      "favourite": 2534,
      "guilty": 2535,
      "sleeping": 2536,
      "trash": 2537,
      "print": 2538,
      "dinosaur": 2539,
      "grandpa": 2540,
      "bags": 2541,
      "delicate": 2542,
      "blankets": 2543,
      "walls": 2544,
      "rubs": 2545,
      "barked": 2546,
      "triangle": 2547,
      "tightly": 2548,
      "creative": 2549,
      "empty": 2550,
      "delight": 2551,
      "stream": 2552,
      "bottle": 2553,
      "cushions": 2554,
      "glass": 2555,
      "wander": 2556,
      "smelled": 2557,
      "counted": 2558,
      "happening": 2559,
      "serious": 2560,
      "fingers": 2561,
      "pilot": 2562,
      "bounce": 2563,
      "chasing": 2564,
      "buttons": 2565,
      "unique": 2566,
      "Alice": 2567,
      "necklace": 2568,
      "celebrate": 2569,
      "Freddy": 2570,
      "feathers": 2571,
      "bubbles": 2572,
      "colourful": 2573,
      "vehicle": 2574,
      "wishes": 2575,
      "soldiers": 2576,
      "built": 2577,
      "taken": 2578,
      "Denise": 2579,
      "Next": 2580,
      "Snowy": 2581,
      "avocad": 2582,
      "jelly": 2583,
      "tough": 2584,
      "record": 2585,
      "difficult": 2586,
      "Cla": 2587,
      "Isa": 2588,
      "Mama": 2589,
      "Rus": 2590,
      "Well": 2591,
      "abo": 2592,
      "bake": 2593,
      "bers": 2594,
      "ded": 2595,
      "den": 2596,
      "dea": 2597,
      "dull": 2598,
      "eked": 2599,
      "fla": 2600,
      "fant": 2601,
      "gn": 2602,
      "jam": 2603,
      "mama": 2604,
      "ping": 2605,
      "pho": 2606,
      "pump": 2607,
      "swe": 2608,
      "tug": 2609,
      "tank": 2610,
      "task": 2611,
      "vas": 2612,
      "hett": 2613,
      "ants": 2614,
      "edge": 2615,
      "inc": 2616,
      "inal": 2617,
      "innie": 2618,
      "infant": 2619,
      "rem": 2620,
      "reco": 2621,
      "itch": 2622,
      "wave": 2623,
      "hay": 2624,
      "eros": 2625,
      "once": 2626,
      "ari": 2627,
      "ared": 2628,
      "save": 2629,
      "locked": 2630,
      "stack": 2631,
      "stic": 2632,
      "als": 2633,
      "orig": 2634,
      "nes": 2635,
      "nosy": 2636,
      "vet": 2637,
      "shel": 2638,
      "weird": 2639,
      "often": 2640,
      "espec": 2641,
      "happens": 2642,
      "dove": 2643,
      "roy": 2644,
      "!\".": 2645,
      "hood": 2646,
      "aghett": 2647,
      "themselves": 2648,
      "spray": 2649,
      "spaghett": 2650,
      "carry": 2651,
      "cards": 2652,
      "canvas": 2653,
      "moder": 2654,
      "model": 2655,
      "modest": 2656,
      "ummer": 2657,
      "grown": 2658,
      "peeked": 2659,
      "excitedly": 2660,
      "ssed": 2661,
      "older": 2662,
      "ially": 2663,
      "dogs": 2664,
      "using": 2665,
      "poor": 2666,
      "runk": 2667,
      "finds": 2668,
      "finding": 2669,
      "deer": 2670,
      "bushes": 2671,
      "clum": 2672,
      "warned": 2673,
      "Mae": 2674,
      "pale": 2675,
      "hurry": 2676,
      "leak": 2677,
      "fishing": 2678,
      "ighted": 2679,
      "memor": 2680,
      "magnet": 2681,
      "Lola": 2682,
      "painting": 2683,
      "test": 2684,
      "disgu": 2685,
      "follows": 2686,
      "walks": 2687,
      "accept": 2688,
      "opens": 2689,
      "count": 2690,
      "married": 2691,
      "twig": 2692,
      "twisted": 2693,
      "plants": 2694,
      "grandbaby": 2695,
      "clap": 2696,
      "hidden": 2697,
      "sity": 2698,
      "taller": 2699,
      "hairy": 2700,
      "mountain": 2701,
      "kayak": 2702,
      "delighted": 2703,
      "added": 2704,
      "treasures": 2705,
      "meeting": 2706,
      "kissed": 2707,
      "imagined": 2708,
      "polish": 2709,
      "serve": 2710,
      "destroy": 2711,
      "solve": 2712,
      "mixer": 2713,
      "video": 2714,
      "repeat": 2715,
      "powerful": 2716,
      "giggled": 2717,
      "collec": 2718,
      "collect": 2719,
      "whispered": 2720,
      "ribb": 2721,
      "eggs": 2722,
      "healthy": 2723,
      "cheerful": 2724,
      "slides": 2725,
      "sugar": 2726,
      "curtains": 2727,
      "puzzle": 2728,
      "splashed": 2729,
      "inoceros": 2730,
      "envious": 2731,
      "rhinoceros": 2732,
      "jellyfish": 2733,
      "Claire": 2734,
      "Isabel": 2735,
      "Russel": 2736,
      "above": 2737,
      "deaf": 2738,
      "photo": 2739,
      "recogn": 2740,
      "original": 2741,
      "especially": 2742,
      "spaghetti": 2743,
      "modern": 2744,
      "\",": 2745,
      "Bear": 2746,
      "Bloom": 2747,
      "Lul": 2748,
      "Or": 2749,
      "bent": 2750,
      "barn": 2751,
      "deter": 2752,
      "ethe": 2753,
      "eye": 2754,
      "fou": 2755,
      "grace": 2756,
      "hone": 2757,
      "ible": 2758,
      "lay": 2759,
      "mm": 2760,
      "mes": 2761,
      "mber": 2762,
      "nature": 2763,
      "number": 2764,
      "oke": 2765,
      "oga": 2766,
      "radi": 2767,
      "sir": 2768,
      "scare": 2769,
      "sie": 2770,
      "sink": 2771,
      "scr": 2772,
      "snee": 2773,
      "summer": 2774,
      "trunk": 2775,
      "va": 2776,
      "vie": 2777,
      "yell": 2778,
      "œYou": 2779,
      "€.": 2780,
      "inked": 2781,
      "intell": 2782,
      "inclu": 2783,
      "reve": 2784,
      "ity": 2785,
      "enorm": 2786,
      "saf": 2787,
      "lean": 2788,
      "lose": 2789,
      "stable": 2790,
      "order": 2791,
      "beg": 2792,
      "beep": 2793,
      "ses": 2794,
      "nest": 2795,
      "igent": 2796,
      "sock": 2797,
      "rice": 2798,
      "weight": 2799,
      "weighed": 2800,
      "lick": 2801,
      "change": 2802,
      "smoke": 2803,
      "robot": 2804,
      "holid": 2805,
      "hospit": 2806,
      "agree": 2807,
      "spon": 2808,
      "measure": 2809,
      "covery": 2810,
      "law": 2811,
      "lazy": 2812,
      "quit": 2813,
      "Susie": 2814,
      "blinked": 2815,
      "closet": 2816,
      "sors": 2817,
      "skirt": 2818,
      "joined": 2819,
      "juicy": 2820,
      "learning": 2821,
      "boxes": 2822,
      "check": 2823,
      "placed": 2824,
      "plastic": 2825,
      "paw": 2826,
      "needle": 2827,
      "comp": 2828,
      "comput": 2829,
      "izes": 2830,
      "jumps": 2831,
      "loudly": 2832,
      "crash": 2833,
      "shooting": 2834,
      "impro": 2835,
      "cond": 2836,
      "appro": 2837,
      "flour": 2838,
      "choose": 2839,
      "discovered": 2840,
      "discovery": 2841,
      "borrow": 2842,
      "sticker": 2843,
      "topus": 2844,
      "yelled": 2845,
      "chamber": 2846,
      "square": 2847,
      "floated": 2848,
      "guard": 2849,
      "driving": 2850,
      "snuggled": 2851,
      "stops": 2852,
      "phy": 2853,
      "Emmy": 2854,
      "breaks": 2855,
      "corn": 2856,
      "zebra": 2857,
      "falls": 2858,
      "candle": 2859,
      "avail": 2860,
      "whistle": 2861,
      "neighb": 2862,
      "building": 2863,
      "counting": 2864,
      "dust": 2865,
      "chicken": 2866,
      "riding": 2867,
      "turkey": 2868,
      "imagination": 2869,
      "pillow": 2870,
      "octopus": 2871,
      "diary": 2872,
      "giggle": 2873,
      "chewed": 2874,
      "distance": 2875,
      "practice": 2876,
      "Paul": 2877,
      "easy": 2878,
      "carrots": 2879,
      "gift": 2880,
      "trophy": 2881,
      "pastry": 2882,
      "large": 2883,
      "sauce": 2884,
      "space": 2885,
      "wiped": 2886,
      "yawned": 2887,
      "True": 2888,
      "protect": 2889,
      "bossy": 2890,
      "factory": 2891,
      "pumpkin": 2892,
      "sweethe": 2893,
      "remain": 2894,
      "clumsy": 2895,
      "twigs": 2896,
      "Lulu": 2897,
      "fountain": 2898,
      "honest": 2899,
      "radio": 2900,
      "intelligent": 2901,
      "enormous": 2902,
      "holiday": 2903,
      "hospital": 2904,
      "available": 2905,
      "sweetheart": 2906,
      "Acce": 2907,
      "Bye": 2908,
      "Gran": 2909,
      "Kate": 2910,
      "Mil": 2911,
      "Milly": 2912,
      "Meri": 2913,
      "St": 2914,
      "Yuck": 2915,
      "Zigzag": 2916,
      "aid": 2917,
      "awe": 2918,
      "bul": 2919,
      "bur": 2920,
      "bump": 2921,
      "burn": 2922,
      "chat": 2923,
      "dig": 2924,
      "dug": 2925,
      "dependable": 2926,
      "eld": 2927,
      "fil": 2928,
      "four": 2929,
      "fine": 2930,
      "frag": 2931,
      "ging": 2932,
      "glove": 2933,
      "hum": 2934,
      "honey": 2935,
      "lk": 2936,
      "ls": 2937,
      "men": 2938,
      "may": 2939,
      "mask": 2940,
      "mined": 2941,
      "munk": 2942,
      "names": 2943,
      "oven": 2944,
      "osity": 2945,
      "pay": 2946,
      "pru": 2947,
      "ptor": 2948,
      "sil": 2949,
      "sip": 2950,
      "size": 2951,
      "tip": 2952,
      "tweet": 2953,
      "van": 2954,
      "vice": 2955,
      "yer": 2956,
      "yarn": 2957,
      "yoga": 2958,
      "zed": 2959,
      "zipped": 2960,
      "zipping": 2961,
      "€“": 2962,
      "rece": 2963,
      "refused": 2964,
      "request": 2965,
      "itself": 2966,
      "waves": 2967,
      "erly": 2968,
      "leton": 2969,
      "stuff": 2970,
      "imed": 2971,
      "already": 2972,
      "alert": 2973,
      "thick": 2974,
      "behave": 2975,
      "cky": 2976,
      "seat": 2977,
      "second": 2978,
      "keleton": 2979,
      "noon": 2980,
      "advice": 2981,
      "weal": 2982,
      "unite": 2983,
      "lift": 2984,
      "licked": 2985,
      "lives": 2986,
      "chip": 2987,
      "boys": 2988,
      "entered": 2989,
      "ship": 2990,
      "rac": 2991,
      "raced": 2992,
      "hoop": 2993,
      "aged": 2994,
      "ages": 2995,
      "spade": 2996,
      "carto": 2997,
      "feed": 2998,
      "urous": 2999,
      "Your": 3000,
      "hedge": 3001,
      "managed": 3002,
      "fool": 3003,
      "helps": 3004,
      "father": 3005,
      "opera": 3006,
      "nowhere": 3007,
      "working": 3008,
      "worries": 3009,
      "against": 3010,
      "sadly": 3011,
      "sharing": 3012,
      "shakes": 3013,
      "popped": 3014,
      "knows": 3015,
      "joke": 3016,
      "experi": 3017,
      "harm": 3018,
      "beak": 3019,
      "picking": 3020,
      "compet": 3021,
      "adventurous": 3022,
      "ctive": 3023,
      "impre": 3024,
      "bloom": 3025,
      "grabs": 3026,
      "flame": 3027,
      "heads": 3028,
      "remembers": 3029,
      "realised": 3030,
      "doesn": 3031,
      "bows": 3032,
      "chalk": 3033,
      "brothers": 3034,
      "sweetie": 3035,
      "coura": 3036,
      "tray": 3037,
      "ignor": 3038,
      "drop": 3039,
      "planes": 3040,
      "thanks": 3041,
      "content": 3042,
      "license": 3043,
      "base": 3044,
      "provide": 3045,
      "drawings": 3046,
      "mention": 3047,
      "branches": 3048,
      "Becky": 3049,
      "rubbing": 3050,
      "windows": 3051,
      "castles": 3052,
      "cups": 3053,
      "given": 3054,
      "candles": 3055,
      "pleased": 3056,
      "sandbox": 3057,
      "gems": 3058,
      "powder": 3059,
      "glue": 3060,
      "counter": 3061,
      "jeep": 3062,
      "smells": 3063,
      "throws": 3064,
      "bouncy": 3065,
      "shark": 3066,
      "glowing": 3067,
      "kicked": 3068,
      "mixed": 3069,
      "thinking": 3070,
      "crawling": 3071,
      "slipped": 3072,
      "Papa": 3073,
      "egg": 3074,
      "gasped": 3075,
      "stretch": 3076,
      "carrot": 3077,
      "popular": 3078,
      "ticket": 3079,
      "lifted": 3080,
      "machine": 3081,
      "invited": 3082,
      "shells": 3083,
      "avocado": 3084,
      "disgusting": 3085,
      "collecting": 3086,
      "determined": 3087,
      "graceful": 3088,
      "message": 3089,
      "vase": 3090,
      "view": 3091,
      "lawyer": 3092,
      "Acceptor": 3093,
      "Granny": 3094,
      "Millie": 3095,
      "bulb": 3096,
      "elderly": 3097,
      "fragile": 3098,
      "prunes": 3099,
      "silver": 3100,
      "chipmunk": 3101,
      "Bo": 3102,
      "Bec": 3103,
      "Dependable": 3104,
      "Each": 3105,
      "Friend": 3106,
      "Gin": 3107,
      "Kari": 3108,
      "Like": 3109,
      "Man": 3110,
      "Mim": 3111,
      "Miss": 3112,
      "Mrs": 3113,
      "Mmm": 3114,
      "Nor": 3115,
      "Pet": 3116,
      "Pix": 3117,
      "Rit": 3118,
      "Ros": 3119,
      "Sk": 3120,
      "Tweet": 3121,
      "Would": 3122,
      "ause": 3123,
      "cer": 3124,
      "cam": 3125,
      "cow": 3126,
      "cab": 3127,
      "cise": 3128,
      "crib": 3129,
      "equ": 3130,
      "furn": 3131,
      "gue": 3132,
      "jec": 3133,
      "lily": 3134,
      "mand": 3135,
      "mug": 3136,
      "nur": 3137,
      "norm": 3138,
      "oin": 3139,
      "pan": 3140,
      "son": 3141,
      "send": 3142,
      "tled": 3143,
      "yet": 3144,
      "zen": 3145,
      "œIt": 3146,
      "œNo": 3147,
      "œCan": 3148,
      "œYes": 3149,
      "€”": 3150,
      "intro": 3151,
      "replace": 3152,
      "itâ": 3153,
      "iture": 3154,
      "itive": 3155,
      "waist": 3156,
      "wags": 3157,
      "half": 3158,
      "issors": 3159,
      "stat": 3160,
      "straw": 3161,
      "almost": 3162,
      "orang": 3163,
      "herb": 3164,
      "thirst": 3165,
      "thief": 3166,
      "bet": 3167,
      "beam": 3168,
      "below": 3169,
      "atch": 3170,
      "shelf": 3171,
      "soar": 3172,
      "rible": 3173,
      "web": 3174,
      "ween": 3175,
      "weigh": 3176,
      "liqu": 3177,
      "lions": 3178,
      "chor": 3179,
      "chir": 3180,
      "myself": 3181,
      "upid": 3182,
      "hadn": 3183,
      "forth": 3184,
      "shut": 3185,
      "short": 3186,
      "hose": 3187,
      "spring": 3188,
      "exer": 3189,
      "motor": 3190,
      "cope": 3191,
      "icia": 3192,
      "helpless": 3193,
      "stove": 3194,
      "gray": 3195,
      "laimed": 3196,
      "exclaimed": 3197,
      "peek": 3198,
      "Ann": 3199,
      "shaking": 3200,
      "clock": 3201,
      "early": 3202,
      "learnt": 3203,
      "dreamed": 3204,
      "Leticia": 3205,
      "clay": 3206,
      "sunset": 3207,
      "sunrise": 3208,
      "proudly": 3209,
      "clear": 3210,
      "cudd": 3211,
      "offer": 3212,
      "compass": 3213,
      "Lilly": 3214,
      "louder": 3215,
      "observe": 3216,
      "objec": 3217,
      "succe": 3218,
      "steal": 3219,
      "appoin": 3220,
      "ipment": 3221,
      "blueberry": 3222,
      "teas": 3223,
      "teles": 3224,
      "cleaning": 3225,
      "disappoin": 3226,
      "curiosity": 3227,
      "pretending": 3228,
      "guess": 3229,
      "towers": 3230,
      "clapping": 3231,
      "torn": 3232,
      "frozen": 3233,
      "lands": 3234,
      "holds": 3235,
      "cooler": 3236,
      "dreaming": 3237,
      "signed": 3238,
      "visited": 3239,
      "beef": 3240,
      "beehive": 3241,
      "barrel": 3242,
      "ngth": 3243,
      "quietly": 3244,
      "cupboard": 3245,
      "delay": 3246,
      "strength": 3247,
      "pulls": 3248,
      "split": 3249,
      "design": 3250,
      "Grandpa": 3251,
      "minute": 3252,
      "jewel": 3253,
      "passed": 3254,
      "riddle": 3255,
      "blows": 3256,
      "answered": 3257,
      "uggle": 3258,
      "missed": 3259,
      "screen": 3260,
      "folded": 3261,
      "mistake": 3262,
      "belt": 3263,
      "cracker": 3264,
      "stirs": 3265,
      "distant": 3266,
      "practiced": 3267,
      "Charles": 3268,
      "poured": 3269,
      "spinning": 3270,
      "frowned": 3271,
      "questions": 3272,
      "stretched": 3273,
      "scissors": 3274,
      "super": 3275,
      "discovering": 3276,
      "examine": 3277,
      "fearful": 3278,
      "barks": 3279,
      "separated": 3280,
      "paintings": 3281,
      "recognized": 3282,
      "computer": 3283,
      "neighbour": 3284,
      "pillows": 3285,
      "cartoons": 3286,
      "foolish": 3287,
      "competitive": 3288,
      "Because": 3289,
      "Friends": 3290,
      "Gina": 3291,
      "Mimi": 3292,
      "Pete": 3293,
      "Pixie": 3294,
      "Rita": 3295,
      "Rosie": 3296,
      "camera": 3297,
      "cabin": 3298,
      "equipment": 3299,
      "furniture": 3300,
      "nurse": 3301,
      "normal": 3302,
      "introdu": 3303,
      "statue": 3304,
      "oranges": 3305,
      "thirsty": 3306,
      "liquid": 3307,
      "compassion": 3308,
      "telescope": 3309,
      "disappointed": 3310,
      "'.": 3311,
      "Br": 3312,
      "By": 3313,
      "Bill": 3314,
      "Cind": 3315,
      "Did": 3316,
      "Ging": 3317,
      "La": 3318,
      "Lind": 3319,
      "Lea": 3320,
      "List": 3321,
      "Mitt": 3322,
      "Minnie": 3323,
      "Ou": 3324,
      "Oliver": 3325,
      "Red": 3326,
      "Ton": 3327,
      "Tilly": 3328,
      "Un": 3329,
      "Yay": 3330,
      "ached": 3331,
      "ban": 3332,
      "bree": 3333,
      "bread": 3334,
      "bicy": 3335,
      "crun": 3336,
      "died": 3337,
      "fs": 3338,
      "ffin": 3339,
      "gun": 3340,
      "ges": 3341,
      "gloom": 3342,
      "hh": 3343,
      "hon": 3344,
      "hut": 3345,
      "ian": 3346,
      "iver": 3347,
      "jug": 3348,
      "ker": 3349,
      "lend": 3350,
      "lugg": 3351,
      "lines": 3352,
      "mic": 3353,
      "mark": 3354,
      "mmer": 3355,
      "olives": 3356,
      "pri": 3357,
      "padd": 3358,
      "pages": 3359,
      "rup": 3360,
      "rough": 3361,
      "sca": 3362,
      "scat": 3363,
      "simp": 3364,
      "since": 3365,
      "sizes": 3366,
      "tion": 3367,
      "tummy": 3368,
      "vol": 3369,
      "vroom": 3370,
      "zard": 3371,
      "œThat": 3372,
      "anchor": 3373,
      "invest": 3374,
      "rend": 3375,
      "waving": 3376,
      "hamed": 3377,
      "hammer": 3378,
      "erable": 3379,
      "argu": 3380,
      "salad": 3381,
      "iders": 3382,
      "stupid": 3383,
      "orge": 3384,
      "ates": 3385,
      "atient": 3386,
      "attra": 3387,
      "igate": 3388,
      "history": 3389,
      "weep": 3390,
      "lice": 3391,
      "lizard": 3392,
      "chance": 3393,
      "upstairs": 3394,
      "asured": 3395,
      "ashamed": 3396,
      "plays": 3397,
      "fort": 3398,
      "shrink": 3399,
      "shiver": 3400,
      "doves": 3401,
      "roared": 3402,
      "somewhere": 3403,
      "friendship": 3404,
      "raft": 3405,
      "tern": 3406,
      "terrible": 3407,
      "spun": 3408,
      "spea": 3409,
      "exit": 3410,
      "cano": 3411,
      "canâ": 3412,
      "coon": 3413,
      "coll": 3414,
      "backpack": 3415,
      "llen": 3416,
      "lowed": 3417,
      "starting": 3418,
      "rules": 3419,
      "Annie": 3420,
      "muffin": 3421,
      "quite": 3422,
      "everyday": 3423,
      "brings": 3424,
      "decides": 3425,
      "shape": 3426,
      "doggy": 3427,
      "Josh": 3428,
      "police": 3429,
      "known": 3430,
      "skill": 3431,
      "skull": 3432,
      "skipping": 3433,
      "deliver": 3434,
      "buck": 3435,
      "bury": 3436,
      "buried": 3437,
      "map": 3438,
      "maze": 3439,
      "istent": 3440,
      "anywhere": 3441,
      "expens": 3442,
      "harsh": 3443,
      "checked": 3444,
      "reaches": 3445,
      "couldnâ": 3446,
      "handed": 3447,
      "handle": 3448,
      "papers": 3449,
      "fastest": 3450,
      "balls": 3451,
      "offered": 3452,
      "create": 3453,
      "beauty": 3454,
      "perfor": 3455,
      "crow": 3456,
      "shoulder": 3457,
      "cryst": 3458,
      "nodding": 3459,
      "feelings": 3460,
      "impatient": 3461,
      "ucked": 3462,
      "means": 3463,
      "ringing": 3464,
      "cleaned": 3465,
      "squee": 3466,
      "ladybug": 3467,
      "butterflies": 3468,
      "marry": 3469,
      "rested": 3470,
      "pedal": 3471,
      "medi": 3472,
      "prepare": 3473,
      "hider": 3474,
      "fireman": 3475,
      "drawing": 3476,
      "frogs": 3477,
      "closely": 3478,
      "climbing": 3479,
      "matching": 3480,
      "patch": 3481,
      "pattern": 3482,
      "persistent": 3483,
      "trap": 3484,
      "travel": 3485,
      "growing": 3486,
      "swinging": 3487,
      "sparkled": 3488,
      "mailman": 3489,
      "mailbox": 3490,
      "Lee": 3491,
      "achie": 3492,
      "belongs": 3493,
      "wraps": 3494,
      "mystery": 3495,
      "seeker": 3496,
      "miserable": 3497,
      "œIâ": 3498,
      "solved": 3499,
      "crackers": 3500,
      "nicer": 3501,
      "energy": 3502,
      "hanging": 3503,
      "admired": 3504,
      "uniform": 3505,
      "troubled": 3506,
      "relaxed": 3507,
      "Teddy": 3508,
      "easier": 3509,
      "seeds": 3510,
      "gifted": 3511,
      "suggest": 3512,
      "wheels": 3513,
      "steps": 3514,
      "organize": 3515,
      "velvet": 3516,
      "shadows": 3517,
      "memories": 3518,
      "destroyed": 3519,
      "ribbons": 3520,
      "revealed": 3521,
      "safer": 3522,
      "begin": 3523,
      "sponge": 3524,
      "approached": 3525,
      "humble": 3526,
      "wealthy": 3527,
      "raccoon": 3528,
      "impressed": 3529,
      "courage": 3530,
      "Nora": 3531,
      "between": 3532,
      "exercise": 3533,
      "teasing": 3534,
      "compassionate": 3535,
      "Brown": 3536,
      "Cindy": 3537,
      "Ginger": 3538,
      "Lacy": 3539,
      "Linda": 3540,
      "Listen": 3541,
      "Mittens": 3542,
      "Ouch": 3543,
      "banan": 3544,
      "breeze": 3545,
      "bicycle": 3546,
      "gloomy": 3547,
      "luggage": 3548,
      "micro": 3549,
      "scatter": 3550,
      "simple": 3551,
      "volcano": 3552,
      "investigate": 3553,
      "collar": 3554,
      "expensive": 3555,
      "Bet": 3556,
      "Baby": 3557,
      "Ch": 3558,
      "Clar": 3559,
      "Ex": 3560,
      "Ge": 3561,
      "Get": 3562,
      "Mel": 3563,
      "Mike": 3564,
      "Ne": 3565,
      "Re": 3566,
      "Sim": 3567,
      "Snail": 3568,
      "Since": 3569,
      "Yea": 3570,
      "aven": 3571,
      "bare": 3572,
      "bang": 3573,
      "bby": 3574,
      "cra": 3575,
      "cious": 3576,
      "cross": 3577,
      "click": 3578,
      "ding": 3579,
      "dive": 3580,
      "dough": 3581,
      "dess": 3582,
      "ement": 3583,
      "fir": 3584,
      "flight": 3585,
      "gain": 3586,
      "groom": 3587,
      "gers": 3588,
      "ipe": 3589,
      "knot": 3590,
      "knight": 3591,
      "lu": 3592,
      "ler": 3593,
      "masks": 3594,
      "osh": 3595,
      "olive": 3596,
      "pted": 3597,
      "page": 3598,
      "pours": 3599,
      "pian": 3600,
      "rum": 3601,
      "sle": 3602,
      "sne": 3603,
      "snail": 3604,
      "sword": 3605,
      "skeleton": 3606,
      "ubby": 3607,
      "wed": 3608,
      "wha": 3609,
      "wipe": 3610,
      "xu": 3611,
      "yuck": 3612,
      "œMommy": 3613,
      "œHello": 3614,
      "ans": 3615,
      "toes": 3616,
      "inst": 3617,
      "refle": 3618,
      "ites": 3619,
      "wakes": 3620,
      "argue": 3621,
      "isn": 3622,
      "issa": 3623,
      "sal": 3624,
      "saved": 3625,
      "ided": 3626,
      "loe": 3627,
      "stra": 3628,
      "alive": 3629,
      "allowed": 3630,
      "thro": 3631,
      "those": 3632,
      "beard": 3633,
      "hats": 3634,
      "neat": 3635,
      "noisy": 3636,
      "nobody": 3637,
      "ution": 3638,
      "atched": 3639,
      "atta": 3640,
      "igloo": 3641,
      "sheep": 3642,
      "ply": 3643,
      "rious": 3644,
      "ppery": 3645,
      "wever": 3646,
      "unhappy": 3647,
      "uncomfortable": 3648,
      "lier": 3649,
      "chim": 3650,
      "chubby": 3651,
      "elf": 3652,
      "fortun": 3653,
      "ention": 3654,
      "Its": 3655,
      "dots": 3656,
      "notice": 3657,
      "raise": 3658,
      "raised": 3659,
      "hoping": 3660,
      "spike": 3661,
      "spiders": 3662,
      "urge": 3663,
      "urged": 3664,
      "inde": 3665,
      "measured": 3666,
      "rang": 3667,
      "coats": 3668,
      "icer": 3669,
      "icing": 3670,
      "news": 3671,
      "newspa": 3672,
      "makeup": 3673,
      "owners": 3674,
      "Anny": 3675,
      "decor": 3676,
      "bridge": 3677,
      "downstairs": 3678,
      "poem": 3679,
      "earlier": 3680,
      "jokes": 3681,
      "uses": 3682,
      "Everything": 3683,
      "iest": 3684,
      "demand": 3685,
      "clue": 3686,
      "overjoy": 3687,
      "Maisy": 3688,
      "reads": 3689,
      "pushes": 3690,
      "cycle": 3691,
      "paid": 3692,
      "pair": 3693,
      "pajam": 3694,
      "office": 3695,
      "officer": 3696,
      "crept": 3697,
      "surrend": 3698,
      "kindness": 3699,
      "balanc": 3700,
      "balance": 3701,
      "lete": 3702,
      "shouldn": 3703,
      "fles": 3704,
      "sudden": 3705,
      "suff": 3706,
      "Thanks": 3707,
      "apples": 3708,
      "headed": 3709,
      "amazement": 3710,
      "afternoon": 3711,
      "team": 3712,
      "teleph": 3713,
      "choice": 3714,
      "chores": 3715,
      "display": 3716,
      "disagreed": 3717,
      "armchair": 3718,
      "following": 3719,
      "works": 3720,
      "realize": 3721,
      "bowed": 3722,
      "settle": 3723,
      "settled": 3724,
      "breathe": 3725,
      "darkness": 3726,
      "strangers": 3727,
      "dressed": 3728,
      "gust": 3729,
      "track": 3730,
      "ffic": 3731,
      "printing": 3732,
      "horn": 3733,
      "precious": 3734,
      "colours": 3735,
      "petals": 3736,
      "firefly": 3737,
      "firemen": 3738,
      "hills": 3739,
      "sailing": 3740,
      "dreams": 3741,
      "Before": 3742,
      "swims": 3743,
      "insist": 3744,
      "understanding": 3745,
      "traffic": 3746,
      "falling": 3747,
      "adding": 3748,
      "growled": 3749,
      "struggle": 3750,
      "sandcastles": 3751,
      "promise": 3752,
      "knob": 3753,
      "mint": 3754,
      "muscle": 3755,
      "presents": 3756,
      "rides": 3757,
      "blowing": 3758,
      "washing": 3759,
      "folding": 3760,
      "mistakes": 3761,
      "belts": 3762,
      "Goodbye": 3763,
      "diam": 3764,
      "glowed": 3765,
      "marbles": 3766,
      "slip": 3767,
      "slippery": 3768,
      "attention": 3769,
      "lively": 3770,
      "skips": 3771,
      "puddles": 3772,
      "frowning": 3773,
      "tutor": 3774,
      "tickled": 3775,
      "supply": 3776,
      "screams": 3777,
      "wagon": 3778,
      "wagged": 3779,
      "organized": 3780,
      "classroom": 3781,
      "leader": 3782,
      "boots": 3783,
      "machines": 3784,
      "Alfie": 3785,
      "apologized": 3786,
      "apologize": 3787,
      "scoop": 3788,
      "scope": 3789,
      "spilled": 3790,
      "incred": 3791,
      "shelter": 3792,
      "shelves": 3793,
      "leaks": 3794,
      "included": 3795,
      "agreement": 3796,
      "complete": 3797,
      "filthy": 3798,
      "receive": 3799,
      "stuffed": 3800,
      "experience": 3801,
      "ignorant": 3802,
      "basement": 3803,
      "Skip": 3804,
      "strawberry": 3805,
      "motorcycle": 3806,
      "objects": 3807,
      "landscape": 3808,
      "jewels": 3809,
      "neighbourhood": 3810,
      "Tony": 3811,
      "Unfortun": 3812,
      "honk": 3813,
      "œThatâ": 3814,
      "argued": 3815,
      "attractive": 3816,
      "buckle": 3817,
      "suggested": 3818,
      "Brownie": 3819,
      "banana": 3820,
      "microscope": 3821,
      "Chloe": 3822,
      "Clarissa": 3823,
      "George": 3824,
      "Nemo": 3825,
      "Simon": 3826,
      "Yeah": 3827,
      "barely": 3828,
      "dessert": 3829,
      "firm": 3830,
      "luxu": 3831,
      "piano": 3832,
      "slept": 3833,
      "whale": 3834,
      "straight": 3835,
      "throat": 3836,
      "overjoyed": 3837,
      "pajamas": 3838,
      "telephone": 3839,
      "Unfortunately": 3840,
      "Abig": 3841,
      "Bl": 3842,
      "Big": 3843,
      "Bel": 3844,
      "Bru": 3845,
      "Dave": 3846,
      "First": 3847,
      "God": 3848,
      "Hal": 3849,
      "Have": 3850,
      "Is": 3851,
      "Isn": 3852,
      "Liz": 3853,
      "Mouse": 3854,
      "Po": 3855,
      "Qu": 3856,
      "Ru": 3857,
      "Rex": 3858,
      "Rab": 3859,
      "Rain": 3860,
      "Tod": 3861,
      "Unt": 3862,
      "Wil": 3863,
      "Winnie": 3864,
      "ax": 3865,
      "aff": 3866,
      "broom": 3867,
      "bones": 3868,
      "bbled": 3869,
      "bweb": 3870,
      "ci": 3871,
      "cin": 3872,
      "cted": 3873,
      "cough": 3874,
      "city": 3875,
      "dar": 3876,
      "dip": 3877,
      "dles": 3878,
      "dire": 3879,
      "fut": 3880,
      "fas": 3881,
      "fought": 3882,
      "freed": 3883,
      "ffles": 3884,
      "hun": 3885,
      "kne": 3886,
      "lumber": 3887,
      "ms": 3888,
      "mit": 3889,
      "none": 3890,
      "numb": 3891,
      "oe": 3892,
      "oked": 3893,
      "oats": 3894,
      "oak": 3895,
      "prank": 3896,
      "sno": 3897,
      "shave": 3898,
      "sigh": 3899,
      "scold": 3900,
      "tar": 3901,
      "tag": 3902,
      "tling": 3903,
      "tucked": 3904,
      "vor": 3905,
      "ws": 3906,
      "wine": 3907,
      "wigg": 3908,
      "wider": 3909,
      "xi": 3910,
      "zie": 3911,
      "œThank": 3912,
      "œDo": 3913,
      "hesit": 3914,
      "toed": 3915,
      "tour": 3916,
      "todd": 3917,
      "instr": 3918,
      "rever": 3919,
      "recept": 3920,
      "reinde": 3921,
      "repair": 3922,
      "reci": 3923,
      "waits": 3924,
      "waffles": 3925,
      "hall": 3926,
      "ongest": 3927,
      "onward": 3928,
      "omas": 3929,
      "ising": 3930,
      "ists": 3931,
      "ingred": 3932,
      "ley": 3933,
      "losing": 3934,
      "logs": 3935,
      "stru": 3936,
      "station": 3937,
      "iment": 3938,
      "immedi": 3939,
      "ordin": 3940,
      "hero": 3941,
      "third": 3942,
      "beha": 3943,
      "beside": 3944,
      "behaving": 3945,
      "beans": 3946,
      "seum": 3947,
      "hated": 3948,
      "keys": 3949,
      "utter": 3950,
      "ating": 3951,
      "ces": 3952,
      "cepted": 3953,
      "aded": 3954,
      "sore": 3955,
      "sofa": 3956,
      "soak": 3957,
      "soap": 3958,
      "ripped": 3959,
      "weap": 3960,
      "unlock": 3961,
      "libr": 3962,
      "licks": 3963,
      "lips": 3964,
      "chy": 3965,
      "chur": 3966,
      "chief": 3967,
      "asses": 3968,
      "entire": 3969,
      "ended": 3970,
      "endar": 3971,
      "oks": 3972,
      "oky": 3973,
      "happiness": 3974,
      "dolly": 3975,
      "hter": 3976,
      "ugged": 3977,
      "roaring": 3978,
      "sawing": 3979,
      "weren": 3980,
      "!\",": 3981,
      "hoo": 3982,
      "hop": 3983,
      "carpet": 3984,
      "uring": 3985,
      "meal": 3986,
      "coins": 3987,
      "cobweb": 3988,
      "cooked": 3989,
      "lower": 3990,
      "foal": 3991,
      "tools": 3992,
      "ruining": 3993,
      "worth": 3994,
      "museum": 3995,
      "scaring": 3996,
      "careless": 3997,
      "ourselves": 3998,
      "kings": 3999,
      "rooms": 4000,
      "angled": 4001,
      "bling": 4002,
      "poked": 4003,
      "posit": 4004,
      "thoughtful": 4005,
      "Everyday": 4006,
      "laughter": 4007,
      "buzz": 4008,
      "taxi": 4009,
      "maid": 4010,
      "sunlight": 4011,
      "sunscreen": 4012,
      "cats": 4013,
      "antly": 4014,
      "didnâ": 4015,
      "warning": 4016,
      "bites": 4017,
      "cheek": 4018,
      "chefs": 4019,
      "rease": 4020,
      "clearing": 4021,
      "prettie": 4022,
      "handker": 4023,
      "cue": 4024,
      "comb": 4025,
      "comed": 4026,
      "compl": 4027,
      "comple": 4028,
      "wonâ": 4029,
      "surface": 4030,
      "surround": 4031,
      "izing": 4032,
      "letting": 4033,
      "perform": 4034,
      "permit": 4035,
      "trem": 4036,
      "Thomas": 4037,
      "hearts": 4038,
      "spooky": 4039,
      "explorers": 4040,
      "blood": 4041,
      "blocked": 4042,
      "conne": 4043,
      "appreci": 4044,
      "badly": 4045,
      "flutter": 4046,
      "lotion": 4047,
      "doors": 4048,
      "tem": 4049,
      "rings": 4050,
      "dishes": 4051,
      "pared": 4052,
      "singer": 4053,
      "born": 4054,
      "listens": 4055,
      "listening": 4056,
      "fright": 4057,
      "warmth": 4058,
      "accepted": 4059,
      "talent": 4060,
      "cherries": 4061,
      "challen": 4062,
      "pretends": 4063,
      "Joey": 4064,
      "ients": 4065,
      "march": 4066,
      "marching": 4067,
      "twirl": 4068,
      "restless": 4069,
      "snake": 4070,
      "snif": 4071,
      "creams": 4072,
      "planted": 4073,
      "moves": 4074,
      "pressed": 4075,
      "welcomed": 4076,
      "cooking": 4077,
      "queens": 4078,
      "claws": 4079,
      "baking": 4080,
      "deeper": 4081,
      "drawer": 4082,
      "Someone": 4083,
      "wooden": 4084,
      "haircut": 4085,
      "horses": 4086,
      "signs": 4087,
      "arrive": 4088,
      "artist": 4089,
      "blackboard": 4090,
      "barber": 4091,
      "tastes": 4092,
      "point": 4093,
      "points": 4094,
      "moments": 4095,
      "writes": 4096,
      "strongest": 4097,
      "dancer": 4098,
      "whistling": 4099,
      "sparkle": 4100,
      "gling": 4101,
      "glasses": 4102,
      "mouths": 4103,
      "knock": 4104,
      "syrup": 4105,
      "seashells": 4106,
      "brushes": 4107,
      "drinks": 4108,
      "praised": 4109,
      "wrap": 4110,
      "calendar": 4111,
      "destination": 4112,
      "creatures": 4113,
      "neighbors": 4114,
      "mermaid": 4115,
      "mission": 4116,
      "studied": 4117,
      "bounced": 4118,
      "shrugged": 4119,
      "diving": 4120,
      "videos": 4121,
      "problems": 4122,
      "value": 4123,
      "stirred": 4124,
      "distur": 4125,
      "practicing": 4126,
      "respectful": 4127,
      "nails": 4128,
      "celebrated": 4129,
      "eagerly": 4130,
      "tub": 4131,
      "tune": 4132,
      "rescue": 4133,
      "shouts": 4134,
      "shouting": 4135,
      "vehicles": 4136,
      "club": 4137,
      "cubes": 4138,
      "wipes": 4139,
      "yawn": 4140,
      "examined": 4141,
      "Although": 4142,
      "planets": 4143,
      "melt": 4144,
      "melon": 4145,
      "tugged": 4146,
      "itchy": 4147,
      "memory": 4148,
      "ribbon": 4149,
      "scratch": 4150,
      "sneeze": 4151,
      "leaned": 4152,
      "leaning": 4153,
      "ordered": 4154,
      "company": 4155,
      "improved": 4156,
      "dusty": 4157,
      "Stan": 4158,
      "bumped": 4159,
      "mayor": 4160,
      "vanished": 4161,
      "harmless": 4162,
      "œItâ": 4163,
      "chirping": 4164,
      "cuddled": 4165,
      "succeed": 4166,
      "Leave": 4167,
      "crunchy": 4168,
      "paddled": 4169,
      "scale": 4170,
      "skills": 4171,
      "crystal": 4172,
      "achieve": 4173,
      "beginning": 4174,
      "Betty": 4175,
      "crazy": 4176,
      "sneak": 4177,
      "yucky": 4178,
      "chimney": 4179,
      "newspaper": 4180,
      "demanded": 4181,
      "surrender": 4182,
      "suffer": 4183,
      "muscles": 4184,
      "diamond": 4185,
      "incredible": 4186,
      "Abigail": 4187,
      "Blue": 4188,
      "Bella": 4189,
      "Bruce": 4190,
      "Lizzie": 4191,
      "Poor": 4192,
      "Ruby": 4193,
      "Rabbit": 4194,
      "Todd": 4195,
      "Until": 4196,
      "Wilbur": 4197,
      "axe": 4198,
      "future": 4199,
      "fascin": 4200,
      "freedom": 4201,
      "numbers": 4202,
      "toddler": 4203,
      "instrum": 4204,
      "reception": 4205,
      "reindeer": 4206,
      "ingredients": 4207,
      "struck": 4208,
      "immediately": 4209,
      "ordinary": 4210,
      "weapon": 4211,
      "church": 4212,
      "prettiest": 4213,
      "handkerchief": 4214,
      "completed": 4215,
      "challenge": 4216,
      "!'": 4217,
      "..": 4218,
      "Boo": 4219,
      "Cu": 4220,
      "Coun": 4221,
      "Caw": 4222,
      "Fight": 4223,
      "Ha": 4224,
      "Ho": 4225,
      "Happ": 4226,
      "Mr": 4227,
      "Ok": 4228,
      "Pu": 4229,
      "Per": 4230,
      "Pinky": 4231,
      "Ral": 4232,
      "Say": 4233,
      "Spir": 4234,
      "Skeleton": 4235,
      "Shh": 4236,
      "Tu": 4237,
      "Take": 4238,
      "Two": 4239,
      "Uh": 4240,
      "Very": 4241,
      "Wa": 4242,
      "Wel": 4243,
      "Watch": 4244,
      "aked": 4245,
      "aking": 4246,
      "awake": 4247,
      "bat": 4248,
      "bly": 4249,
      "bri": 4250,
      "cent": 4251,
      "cree": 4252,
      "cable": 4253,
      "char": 4254,
      "ccer": 4255,
      "dge": 4256,
      "dic": 4257,
      "dried": 4258,
      "dear": 4259,
      "die": 4260,
      "dies": 4261,
      "ef": 4262,
      "event": 4263,
      "ealed": 4264,
      "fis": 4265,
      "fet": 4266,
      "fond": 4267,
      "gran": 4268,
      "gree": 4269,
      "gloves": 4270,
      "ither": 4271,
      "ived": 4272,
      "ibl": 4273,
      "ience": 4274,
      "jail": 4275,
      "junk": 4276,
      "lined": 4277,
      "laser": 4278,
      "mome": 4279,
      "mare": 4280,
      "mall": 4281,
      "mice": 4282,
      "mild": 4283,
      "nies": 4284,
      "oh": 4285,
      "oas": 4286,
      "pite": 4287,
      "rr": 4288,
      "rat": 4289,
      "sen": 4290,
      "sse": 4291,
      "sway": 4292,
      "swo": 4293,
      "sense": 4294,
      "sibl": 4295,
      "tear": 4296,
      "tire": 4297,
      "tangled": 4298,
      "uce": 4299,
      "vided": 4300,
      "wing": 4301,
      "wire": 4302,
      "zing": 4303,
      "zigzag": 4304,
      "œNow": 4305,
      "œWhy": 4306,
      "œHi": 4307,
      "œMy": 4308,
      "œOf": 4309,
      "heel": 4310,
      "heaven": 4311,
      "theat": 4312,
      "theater": 4313,
      "edy": 4314,
      "tore": 4315,
      "toma": 4316,
      "tonight": 4317,
      "tong": 4318,
      "rele": 4319,
      "release": 4320,
      "rella": 4321,
      "reward": 4322,
      "respon": 4323,
      "ware": 4324,
      "erce": 4325,
      "erged": 4326,
      "eriment": 4327,
      "enve": 4328,
      "encou": 4329,
      "wasted": 4330,
      "washed": 4331,
      "onwards": 4332,
      "ison": 4333,
      "iled": 4334,
      "iling": 4335,
      "idges": 4336,
      "lect": 4337,
      "locks": 4338,
      "stam": 4339,
      "stri": 4340,
      "stage": 4341,
      "stadi": 4342,
      "staff": 4343,
      "alright": 4344,
      "orable": 4345,
      "hers": 4346,
      "herman": 4347,
      "irit": 4348,
      "bead": 4349,
      "begs": 4350,
      "belly": 4351,
      "versat": 4352,
      "ckily": 4353,
      "secre": 4354,
      "cell": 4355,
      "cess": 4356,
      "ceiling": 4357,
      "igno": 4358,
      "adorable": 4359,
      "plates": 4360,
      "soaring": 4361,
      "soared": 4362,
      "soccer": 4363,
      "riage": 4364,
      "ppos": 4365,
      "west": 4366,
      "unpack": 4367,
      "unlocked": 4368,
      "gold": 4369,
      "golf": 4370,
      "ups": 4371,
      "owed": 4372,
      "fortune": 4373,
      "area": 4374,
      "aren": 4375,
      "enter": 4376,
      "ending": 4377,
      "ety": 4378,
      "happier": 4379,
      "outfit": 4380,
      "timer": 4381,
      "thermome": 4382,
      "uggling": 4383,
      "rod": 4384,
      "rot": 4385,
      "roar": 4386,
      "rode": 4387,
      "raked": 4388,
      "raven": 4389,
      "ideas": 4390,
      "spat": 4391,
      "spirit": 4392,
      "caring": 4393,
      "carries": 4394,
      "feast": 4395,
      "illa": 4396,
      "cosy": 4397,
      "costum": 4398,
      "cott": 4399,
      "backed": 4400,
      "seesaw": 4401,
      "mane": 4402,
      "mance": 4403,
      "sidewalk": 4404,
      "tool": 4405,
      "helper": 4406,
      "faced": 4407,
      "fauce": 4408,
      "owned": 4409,
      "grily": 4410,
      "wanting": 4411,
      "rust": 4412,
      "east": 4413,
      "eath": 4414,
      "ddles": 4415,
      "whatever": 4416,
      "reef": 4417,
      "putting": 4418,
      "whoosh": 4419,
      "gotten": 4420,
      "ssible": 4421,
      "Suzy": 4422,
      "brand": 4423,
      "bride": 4424,
      "bridges": 4425,
      "cap": 4426,
      "beds": 4427,
      "dads": 4428,
      "pots": 4429,
      "posse": 4430,
      "poison": 4431,
      "possible": 4432,
      "whip": 4433,
      "woof": 4434,
      "willing": 4435,
      "watches": 4436,
      "anyway": 4437,
      "catches": 4438,
      "ventured": 4439,
      "greedy": 4440,
      "experiment": 4441,
      "cheap": 4442,
      "truly": 4443,
      "plau": 4444,
      "dollhouse": 4445,
      "umpet": 4446,
      "eats": 4447,
      "eaten": 4448,
      "cuss": 4449,
      "complain": 4450,
      "compared": 4451,
      "Johnson": 4452,
      "Not": 4453,
      "Nothing": 4454,
      "hurting": 4455,
      "kindly": 4456,
      "surprises": 4457,
      "Luckily": 4458,
      "brain": 4459,
      "bravery": 4460,
      "fierce": 4461,
      "shoo": 4462,
      "spoons": 4463,
      "spoiled": 4464,
      "wonders": 4465,
      "conf": 4466,
      "conversat": 4467,
      "stem": 4468,
      "steep": 4469,
      "Afterwards": 4470,
      "grabbing": 4471,
      "member": 4472,
      "keeps": 4473,
      "teased": 4474,
      "monkeys": 4475,
      "teapot": 4476,
      "discuss": 4477,
      "voices": 4478,
      "paring": 4479,
      "realizes": 4480,
      "raining": 4481,
      "nightmare": 4482,
      "warmly": 4483,
      "curiously": 4484,
      "accompl": 4485,
      "squealed": 4486,
      "darker": 4487,
      "sweets": 4488,
      "sweeties": 4489,
      "floats": 4490,
      "fills": 4491,
      "brighter": 4492,
      "Instead": 4493,
      "twink": 4494,
      "trumpet": 4495,
      "drops": 4496,
      "contain": 4497,
      "granddad": 4498,
      "prevent": 4499,
      "preparing": 4500,
      "claps": 4501,
      "petted": 4502,
      "softly": 4503,
      "tails": 4504,
      "prove": 4505,
      "provided": 4506,
      "frosting": 4507,
      "satis": 4508,
      "cutting": 4509,
      "vessel": 4510,
      "climbs": 4511,
      "lioness": 4512,
      "raging": 4513,
      "freeze": 4514,
      "trick": 4515,
      "tricks": 4516,
      "creation": 4517,
      "patience": 4518,
      "rolls": 4519,
      "rolling": 4520,
      "emerged": 4521,
      "naughtiness": 4522,
      "fallen": 4523,
      "kittens": 4524,
      "writing": 4525,
      "figured": 4526,
      "struggled": 4527,
      "struggling": 4528,
      "pulling": 4529,
      "sparkles": 4530,
      "explaining": 4531,
      "perfectly": 4532,
      "mailed": 4533,
      "powers": 4534,
      "country": 4535,
      "circl": 4536,
      "beneath": 4537,
      "brushed": 4538,
      "heavier": 4539,
      "gathering": 4540,
      "imagine": 4541,
      "imagining": 4542,
      "patiently": 4543,
      "neighborhood": 4544,
      "piles": 4545,
      "pirates": 4546,
      "winter": 4547,
      "solution": 4548,
      "umbrella": 4549,
      "curly": 4550,
      "chews": 4551,
      "duckling": 4552,
      "univer": 4553,
      "pebbles": 4554,
      "Meow": 4555,
      "trains": 4556,
      "question": 4557,
      "tidying": 4558,
      "Whee": 4559,
      "gym": 4560,
      "source": 4561,
      "pops": 4562,
      "resist": 4563,
      "seems": 4564,
      "coloured": 4565,
      "studying": 4566,
      "actually": 4567,
      "thumbs": 4568,
      "parties": 4569,
      "penguins": 4570,
      "applau": 4571,
      "sausage": 4572,
      "organizing": 4573,
      "puzzles": 4574,
      "selling": 4575,
      "floating": 4576,
      "spending": 4577,
      "jogged": 4578,
      "twisting": 4579,
      "jackets": 4580,
      "pitcher": 4581,
      "zoomed": 4582,
      "separate": 4583,
      "spilling": 4584,
      "helmets": 4585,
      "wandering": 4586,
      "avocados": 4587,
      "flapped": 4588,
      "flavor": 4589,
      "increase": 4590,
      "arian": 4591,
      "tested": 4592,
      "recognize": 4593,
      "scratched": 4594,
      "sneezed": 4595,
      "reveal": 4596,
      "safety": 4597,
      "paws": 4598,
      "improve": 4599,
      "tiptoed": 4600,
      "received": 4601,
      "experien": 4602,
      "mentioned": 4603,
      "Both": 4604,
      "Books": 4605,
      "certain": 4606,
      "cows": 4607,
      "success": 4608,
      "superhero": 4609,
      "introduce": 4610,
      "introduced": 4611,
      "prize": 4612,
      "tionary": 4613,
      "shivered": 4614,
      "speak": 4615,
      "performing": 4616,
      "performance": 4617,
      "crowd": 4618,
      "squeeze": 4619,
      "Exc": 4620,
      "crossed": 4621,
      "gained": 4622,
      "reflection": 4623,
      "salty": 4624,
      "attach": 4625,
      "balanced": 4626,
      "tracks": 4627,
      "insisting": 4628,
      "firmly": 4629,
      "luxury": 4630,
      "Halley": 4631,
      "Quick": 4632,
      "dips": 4633,
      "direction": 4634,
      "snoo": 4635,
      "reversing": 4636,
      "behavi": 4637,
      "connected": 4638,
      "frightened": 4639,
      "twirled": 4640,
      "disturbed": 4641,
      "fascinated": 4642,
      "instruments": 4643,
      "Counting": 4644,
      "Fighting": 4645,
      "However": 4646,
      "Happy": 4647,
      "Puddles": 4648,
      "Percy": 4649,
      "Ralph": 4650,
      "Spirit": 4651,
      "Tues": 4652,
      "Wait": 4653,
      "Welcome": 4654,
      "batter": 4655,
      "brick": 4656,
      "creek": 4657,
      "dictionary": 4658,
      "effort": 4659,
      "fisherman": 4660,
      "greeted": 4661,
      "oasis": 4662,
      "siblings": 4663,
      "theatre": 4664,
      "tongue": 4665,
      "released": 4666,
      "response": 4667,
      "envelo": 4668,
      "encouraging": 4669,
      "lecture": 4670,
      "stadium": 4671,
      "beads": 4672,
      "secrets": 4673,
      "thermometer": 4674,
      "costumes": 4675,
      "cottage": 4676,
      "faucet": 4677,
      "possess": 4678,
      "conversation": 4679,
      "!'.": 4680,
      "?!": 4681,
      "Bir": 4682,
      "Bad": 4683,
      "Car": 4684,
      "Coo": 4685,
      "Din": 4686,
      "Eat": 4687,
      "East": 4688,
      "Fun": 4689,
      "Fine": 4690,
      "Gre": 4691,
      "Imag": 4692,
      "Jer": 4693,
      "Mor": 4694,
      "Mine": 4695,
      "Moe": 4696,
      "Nice": 4697,
      "Our": 4698,
      "Pe": 4699,
      "Put": 4700,
      "Run": 4701,
      "Sp": 4702,
      "Sha": 4703,
      "Slow": 4704,
      "Sour": 4705,
      "Shar": 4706,
      "Shoo": 4707,
      "Vroom": 4708,
      "Wed": 4709,
      "Wor": 4710,
      "Wake": 4711,
      "Zoe": 4712,
      "ais": 4713,
      "aunt": 4714,
      "apart": 4715,
      "bi": 4716,
      "bin": 4717,
      "bom": 4718,
      "bbed": 4719,
      "bank": 4720,
      "bumpy": 4721,
      "blast": 4722,
      "binoc": 4723,
      "buses": 4724,
      "bborn": 4725,
      "bbly": 4726,
      "cing": 4727,
      "cas": 4728,
      "cus": 4729,
      "camp": 4730,
      "digg": 4731,
      "drum": 4732,
      "during": 4733,
      "eight": 4734,
      "either": 4735,
      "fy": 4736,
      "fed": 4737,
      "fat": 4738,
      "fain": 4739,
      "fits": 4740,
      "fash": 4741,
      "gon": 4742,
      "gle": 4743,
      "gir": 4744,
      "gro": 4745,
      "graz": 4746,
      "ib": 4747,
      "iv": 4748,
      "iar": 4749,
      "itor": 4750,
      "ival": 4751,
      "jigg": 4752,
      "jured": 4753,
      "ks": 4754,
      "kis": 4755,
      "kins": 4756,
      "kery": 4757,
      "len": 4758,
      "lon": 4759,
      "lim": 4760,
      "lli": 4761,
      "litt": 4762,
      "lings": 4763,
      "mun": 4764,
      "mas": 4765,
      "mbo": 4766,
      "mped": 4767,
      "munch": 4768,
      "nut": 4769,
      "nce": 4770,
      "obe": 4771,
      "pand": 4772,
      "pup": 4773,
      "pry": 4774,
      "pouted": 4775,
      "pants": 4776,
      "ris": 4777,
      "rated": 4778,
      "sed": 4779,
      "sna": 4780,
      "sla": 4781,
      "sank": 4782,
      "snap": 4783,
      "swell": 4784,
      "tv": 4785,
      "tum": 4786,
      "tles": 4787,
      "tiss": 4788,
      "tton": 4789,
      "ude": 4790,
      "vic": 4791,
      "wn": 4792,
      "wow": 4793,
      "wound": 4794,
      "xious": 4795,
      "xible": 4796,
      "yed": 4797,
      "ying": 4798,
      "yal": 4799,
      "yum": 4800,
      "yie": 4801,
      "œMom": 4802,
      "œJack": 4803,
      "œWhat": 4804,
      "œLook": 4805,
      "œWow": 4806,
      "œOh": 4807,
      "œHey": 4808,
      "œhi": 4809,
      "heat": 4810,
      "anno": 4811,
      "anxious": 4812,
      "torious": 4813,
      "inter": 4814,
      "infan": 4815,
      "injured": 4816,
      "reass": 4817,
      "refre": 4818,
      "refresh": 4819,
      "replaced": 4820,
      "ouched": 4821,
      "ount": 4822,
      "ition": 4823,
      "itches": 4824,
      "itude": 4825,
      "encoura": 4826,
      "onion": 4827,
      "onment": 4828,
      "omed": 4829,
      "arl": 4830,
      "sale": 4831,
      "sages": 4832,
      "iliar": 4833,
      "lest": 4834,
      "lets": 4835,
      "loving": 4836,
      "local": 4837,
      "lolli": 4838,
      "loyal": 4839,
      "sts": 4840,
      "sty": 4841,
      "sted": 4842,
      "stro": 4843,
      "sters": 4844,
      "stival": 4845,
      "immer": 4846,
      "allo": 4847,
      "ality": 4848,
      "orts": 4849,
      "thous": 4850,
      "ironment": 4851,
      "beamed": 4852,
      "bellow": 4853,
      "becoming": 4854,
      "veral": 4855,
      "sew": 4856,
      "sewed": 4857,
      "several": 4858,
      "neare": 4859,
      "nels": 4860,
      "necess": 4861,
      "utching": 4862,
      "ading": 4863,
      "adul": 4864,
      "adjust": 4865,
      "among": 4866,
      "ambled": 4867,
      "ricane": 4868,
      "hissed": 4869,
      "youâ": 4870,
      "weâ": 4871,
      "wept": 4872,
      "unable": 4873,
      "unkind": 4874,
      "unpacked": 4875,
      "chill": 4876,
      "chop": 4877,
      "gobbled": 4878,
      "ower": 4879,
      "assm": 4880,
      "els": 4881,
      "eled": 4882,
      "eliness": 4883,
      "players": 4884,
      "forgave": 4885,
      "forgetting": 4886,
      "forgives": 4887,
      "boom": 4888,
      "bother": 4889,
      "bots": 4890,
      "bodies": 4891,
      "Itâ": 4892,
      "oking": 4893,
      "happiest": 4894,
      "itten": 4895,
      "ittered": 4896,
      "shown": 4897,
      "shined": 4898,
      "shorts": 4899,
      "outdoors": 4900,
      "rocked": 4901,
      "ropes": 4902,
      "robots": 4903,
      "akes": 4904,
      "somebody": 4905,
      "friendâ": 4906,
      "rainy": 4907,
      "hotter": 4908,
      "hopes": 4909,
      "however": 4910,
      "spic": 4911,
      "spits": 4912,
      "cared": 4913,
      "carriage": 4914,
      "irlpool": 4915,
      "festival": 4916,
      "illed": 4917,
      "exchanged": 4918,
      "ected": 4919,
      "cans": 4920,
      "meat": 4921,
      "meowed": 4922,
      "motion": 4923,
      "coco": 4924,
      "cocked": 4925,
      "cotton": 4926,
      "icate": 4927,
      "?\",": 4928,
      "seeing": 4929,
      "newfound": 4930,
      "fog": 4931,
      "footing": 4932,
      "ures": 4933,
      "staring": 4934,
      "fact": 4935,
      "faction": 4936,
      "boyâ": 4937,
      "stolen": 4938,
      "stomped": 4939,
      "otherwise": 4940,
      "worm": 4941,
      "hugging": 4942,
      "peck": 4943,
      "pecked": 4944,
      "pearl": 4945,
      "quar": 4946,
      "quack": 4947,
      "quake": 4948,
      "wallet": 4949,
      "decis": 4950,
      "items": 4951,
      "thanking": 4952,
      "ssive": 4953,
      "capt": 4954,
      "caution": 4955,
      "blind": 4956,
      "blouse": 4957,
      "poke": 4958,
      "sort": 4959,
      "ives": 4960,
      "whirlpool": 4961,
      "wobbly": 4962,
      "earrings": 4963,
      "budge": 4964,
      "taped": 4965,
      "mac": 4966,
      "waters": 4967,
      "cluck": 4968,
      "clucked": 4969,
      "clutching": 4970,
      "ishy": 4971,
      "warn": 4972,
      "expected": 4973,
      "reaction": 4974,
      "pickles": 4975,
      "puff": 4976,
      "untie": 4977,
      "exploded": 4978,
      "created": 4979,
      "flowing": 4980,
      "comfy": 4981,
      "commun": 4982,
      "Nobody": 4983,
      "wherever": 4984,
      "izon": 4985,
      "hurried": 4986,
      "hurricane": 4987,
      "stays": 4988,
      "surprising": 4989,
      "bracele": 4990,
      "fied": 4991,
      "letâ": 4992,
      "perature": 4993,
      "treated": 4994,
      "crouched": 4995,
      "evening": 4996,
      "shoe": 4997,
      "shot": 4998,
      "shoot": 4999,
      "familiar": 5000,
      "obser": 5001,
      "windy": 5002,
      "winding": 5003,
      "flexible": 5004,
      "suppos": 5005,
      "hearing": 5006,
      "underground": 5007,
      "spots": 5008,
      "blob": 5009,
      "bloss": 5010,
      "concent": 5011,
      "fluff": 5012,
      "heading": 5013,
      "thrilled": 5014,
      "Asked": 5015,
      "quicker": 5016,
      "colored": 5017,
      "Does": 5018,
      "monsters": 5019,
      "tease": 5020,
      "teaches": 5021,
      "telling": 5022,
      "chopping": 5023,
      "parked": 5024,
      "parted": 5025,
      "singers": 5026,
      "Sueâ": 5027,
      "rains": 5028,
      "bowing": 5029,
      "nightstand": 5030,
      "setting": 5031,
      "acted": 5032,
      "tallest": 5033,
      "airplane": 5034,
      "difference": 5035,
      "pennies": 5036,
      "squirt": 5037,
      "squishy": 5038,
      "breaking": 5039,
      "breathes": 5040,
      "sterday": 5041,
      "opening": 5042,
      "dresser": 5043,
      "gues": 5044,
      "guys": 5045,
      "counts": 5046,
      "filling": 5047,
      "Inst": 5048,
      "sleepier": 5049,
      "trading": 5050,
      "drift": 5051,
      "drives": 5052,
      "foods": 5053,
      "pedaled": 5054,
      "pedals": 5055,
      "snuck": 5056,
      "snuggle": 5057,
      "snatched": 5058,
      "slower": 5059,
      "potion": 5060,
      "fixing": 5061,
      "printed": 5062,
      "horizon": 5063,
      "Jimmyâ": 5064,
      "pets": 5065,
      "petal": 5066,
      "bakery": 5067,
      "wears": 5068,
      "storybook": 5069,
      "fires": 5070,
      "draws": 5071,
      "brant": 5072,
      "covers": 5073,
      "covering": 5074,
      "Behind": 5075,
      "Beware": 5076,
      "visitor": 5077,
      "artists": 5078,
      "understands": 5079,
      "bars": 5080,
      "trips": 5081,
      "creating": 5082,
      "dryer": 5083,
      "quietest": 5084,
      "trail": 5085,
      "trapped": 5086,
      "napkin": 5087,
      "hideaway": 5088,
      "pleasure": 5089,
      "written": 5090,
      "bottles": 5091,
      "growls": 5092,
      "visiting": 5093,
      "bunch": 5094,
      "bundles": 5095,
      "whistled": 5096,
      "tongues": 5097,
      "jars": 5098,
      "drivers": 5099,
      "desert": 5100,
      "despite": 5101,
      "glittered": 5102,
      "wheat": 5103,
      "network": 5104,
      "circus": 5105,
      "relief": 5106,
      "paintbrush": 5107,
      "paintbrushes": 5108,
      "Granddad": 5109,
      "further": 5110,
      "knocks": 5111,
      "symbo": 5112,
      "squirrels": 5113,
      "business": 5114,
      "dragged": 5115,
      "dragons": 5116,
      "dragging": 5117,
      "splashing": 5118,
      "praises": 5119,
      "riddles": 5120,
      "wrapping": 5121,
      "doctors": 5122,
      "gentleman": 5123,
      "steady": 5124,
      "missile": 5125,
      "stubborn": 5126,
      "gestures": 5127,
      "comfort": 5128,
      "bikes": 5129,
      "missing": 5130,
      "occas": 5131,
      "bells": 5132,
      "solving": 5133,
      "cracked": 5134,
      "dipped": 5135,
      "glows": 5136,
      "kicking": 5137,
      "lemons": 5138,
      "giggles": 5139,
      "slices": 5140,
      "tunnels": 5141,
      "respected": 5142,
      "ulars": 5143,
      "hopeful": 5144,
      "vibrant": 5145,
      "reminder": 5146,
      "fields": 5147,
      "ghosts": 5148,
      "peanuts": 5149,
      "embarrassm": 5150,
      "streets": 5151,
      "speeding": 5152,
      "interested": 5153,
      "easily": 5154,
      "gasps": 5155,
      "teaching": 5156,
      "rainbows": 5157,
      "celebration": 5158,
      "notebook": 5159,
      "cheering": 5160,
      "Whose": 5161,
      "Whoosh": 5162,
      "result": 5163,
      "engines": 5164,
      "wouldnâ": 5165,
      "bubblegum": 5166,
      "freezing": 5167,
      "peacefully": 5168,
      "bandages": 5169,
      "hooks": 5170,
      "clues": 5171,
      "sandwich": 5172,
      "politely": 5173,
      "knives": 5174,
      "scrub": 5175,
      "shade": 5176,
      "wagging": 5177,
      "sausages": 5178,
      "trusted": 5179,
      "chases": 5180,
      "gaze": 5181,
      "gazed": 5182,
      "arrows": 5183,
      "lifts": 5184,
      "lifting": 5185,
      "Always": 5186,
      "Owl": 5187,
      "Truck": 5188,
      "score": 5189,
      "splashes": 5190,
      "invol": 5191,
      "inviting": 5192,
      "environment": 5193,
      "flags": 5194,
      "twisty": 5195,
      "melting": 5196,
      "zooming": 5197,
      "spills": 5198,
      "earthquake": 5199,
      "necklaces": 5200,
      "flap": 5201,
      "nesday": 5202,
      "sprayed": 5203,
      "spraying": 5204,
      "hurrying": 5205,
      "repeating": 5206,
      "collected": 5207,
      "scrambled": 5208,
      "œYouâ": 5209,
      "include": 5210,
      "including": 5211,
      "begged": 5212,
      "weightless": 5213,
      "computers": 5214,
      "improving": 5215,
      "approval": 5216,
      "chooses": 5217,
      "neighbours": 5218,
      "spaceship": 5219,
      "remained": 5220,
      "burrow": 5221,
      "burnt": 5222,
      "burned": 5223,
      "chatted": 5224,
      "film": 5225,
      "menu": 5226,
      "vanish": 5227,
      "vanilla": 5228,
      "wealth": 5229,
      "harmful": 5230,
      "impressive": 5231,
      "ignored": 5232,
      "windowsill": 5233,
      "gracefully": 5234,
      "guests": 5235,
      "strawberries": 5236,
      "springs": 5237,
      "clearly": 5238,
      "object": 5239,
      "guessed": 5240,
      "delayed": 5241,
      "designs": 5242,
      "designed": 5243,
      "jewelry": 5244,
      "cabinet": 5245,
      "crunching": 5246,
      "markers": 5247,
      "paddle": 5248,
      "scales": 5249,
      "speaker": 5250,
      "muffins": 5251,
      "crystals": 5252,
      "squeezed": 5253,
      "medium": 5254,
      "patterns": 5255,
      "achieved": 5256,
      "scattered": 5257,
      "Really": 5258,
      "Remember": 5259,
      "wedding": 5260,
      "instantly": 5261,
      "reflective": 5262,
      "salt": 5263,
      "neatly": 5264,
      "attached": 5265,
      "decorate": 5266,
      "decorated": 5267,
      "balancing": 5268,
      "breathed": 5269,
      "darlings": 5270,
      "hungrily": 5271,
      "kneeled": 5272,
      "sighs": 5273,
      "scolded": 5274,
      "targets": 5275,
      "wiggle": 5276,
      "wiggly": 5277,
      "hesitant": 5278,
      "hesitated": 5279,
      "library": 5280,
      "librarian": 5281,
      "positive": 5282,
      "cheeks": 5283,
      "surroundings": 5284,
      "tremble": 5285,
      "appreciate": 5286,
      "fluttering": 5287,
      "temperature": 5288,
      "sniffs": 5289,
      "clubs": 5290,
      "succeeded": 5291,
      "sneaks": 5292,
      "sneaky": 5293,
      "receptionist": 5294,
      "Curious": 5295,
      "charming": 5296,
      "fetch": 5297,
      "granted": 5298,
      "junkyard": 5299,
      "sensors": 5300,
      "swollen": 5301,
      "tomato": 5302,
      "rewarding": 5303,
      "stamped": 5304,
      "striking": 5305,
      "ignore": 5306,
      "golden": 5307,
      "confident": 5308,
      "accomplished": 5309,
      "containers": 5310,
      "satisfaction": 5311,
      "circled": 5312,
      "university": 5313,
      "popsic": 5314,
      "applauded": 5315,
      "flavors": 5316,
      "experienced": 5317,
      "successful": 5318,
      "Excuse": 5319,
      "snooze": 5320,
      "behaviour": 5321,
      "Tuesday": 5322,
      "envelope": 5323,
      "possession": 5324,
      "Birthday": 5325,
      "Cars": 5326,
      "Great": 5327,
      "Jerry": 5328,
      "Moral": 5329,
      "People": 5330,
      "Slowly": 5331,
      "Sharing": 5332,
      "Wednesday": 5333,
      "aisle": 5334,
      "biking": 5335,
      "bomb": 5336,
      "binoculars": 5337,
      "digging": 5338,
      "faint": 5339,
      "fashion": 5340,
      "gonna": 5341,
      "glee": 5342,
      "ivity": 5343,
      "kisses": 5344,
      "loneliness": 5345,
      "massage": 5346,
      "nuts": 5347,
      "panda": 5348,
      "risks": 5349,
      "snapped": 5350,
      "slapped": 5351,
      "tissue": 5352,
      "victorious": 5353,
      "yield": 5354,
      "interrup": 5355,
      "infants": 5356,
      "refreshed": 5357,
      "refreshing": 5358,
      "encouraged": 5359,
      "lollipop": 5360,
      "immering": 5361,
      "thousand": 5362,
      "bellowed": 5363,
      "nearer": 5364,
      "adults": 5365,
      "captain": 5366,
      "communicate": 5367,
      "bracelets": 5368,
      "supposed": 5369,
      "concentrated": 5370,
      "symbol": 5371,
      "occasion": 5372,
      "embarrassment": 5373,
      "',": 5374,
      "'.\"": 5375,
      "'?\"": 5376,
      "--": 5377,
      "10": 5378,
      "3r": 5379,
      "Ah": 5380,
      "Ar": 5381,
      "Ano": 5382,
      "Add": 5383,
      "Abra": 5384,
      "Acho": 5385,
      "Apolog": 5386,
      "Ahh": 5387,
      "Bug": 5388,
      "Bra": 5389,
      "Bea": 5390,
      "Bless": 5391,
      "Bull": 5392,
      "Baking": 5393,
      "Co": 5394,
      "Che": 5395,
      "Cre": 5396,
      "Care": 5397,
      "Cone": 5398,
      "Cho": 5399,
      "Crow": 5400,
      "Cleaning": 5401,
      "Clim": 5402,
      "Count": 5403,
      "De": 5404,
      "Des": 5405,
      "Dear": 5406,
      "Danger": 5407,
      "During": 5408,
      "En": 5409,
      "Fe": 5410,
      "Fu": 5411,
      "Fru": 5412,
      "Fol": 5413,
      "Fold": 5414,
      "Fish": 5415,
      "Fort": 5416,
      "Fair": 5417,
      "Gent": 5418,
      "Glad": 5419,
      "Gem": 5420,
      "Hig": 5421,
      "Hide": 5422,
      "Hur": 5423,
      "Hang": 5424,
      "Honey": 5425,
      "Hmm": 5426,
      "Ig": 5427,
      "Ice": 5428,
      "Ke": 5429,
      "Kid": 5430,
      "Kno": 5431,
      "Know": 5432,
      "Lower": 5433,
      "May": 5434,
      "Many": 5435,
      "Mover": 5436,
      "Moo": 5437,
      "Mister": 5438,
      "Out": 5439,
      "Phe": 5440,
      "Pro": 5441,
      "Pick": 5442,
      "Pret": 5443,
      "Pass": 5444,
      "Panic": 5445,
      "Ra": 5446,
      "Ro": 5447,
      "Right": 5448,
      "Rice": 5449,
      "Rep": 5450,
      "Raven": 5451,
      "Rrr": 5452,
      "Rib": 5453,
      "Sl": 5454,
      "Sw": 5455,
      "Sir": 5456,
      "Spl": 5457,
      "Sug": 5458,
      "Sur": 5459,
      "Sigh": 5460,
      "Sleep": 5461,
      "Silly": 5462,
      "Soup": 5463,
      "Story": 5464,
      "Summer": 5465,
      "Ta": 5466,
      "Try": 5467,
      "Tiny": 5468,
      "Tears": 5469,
      "Teas": 5470,
      "Taking": 5471,
      "Und": 5472,
      "Wo": 5473,
      "Win": 5474,
      "Whis": 5475,
      "Was": 5476,
      "Water": 5477,
      "Woo": 5478,
      "Ye": 5479,
      "Yum": 5480,
      "Yoga": 5481,
      "Zoom": 5482,
      "ah": 5483,
      "au": 5484,
      "aim": 5485,
      "ath": 5486,
      "ago": 5487,
      "aur": 5488,
      "apr": 5489,
      "ache": 5490,
      "acle": 5491,
      "aster": 5492,
      "ashed": 5493,
      "afar": 5494,
      "ajar": 5495,
      "ashes": 5496,
      "apointed": 5497,
      "aimed": 5498,
      "bid": 5499,
      "bam": 5500,
      "bill": 5501,
      "bish": 5502,
      "bond": 5503,
      "bbers": 5504,
      "cri": 5505,
      "cli": 5506,
      "cro": 5507,
      "cts": 5508,
      "cous": 5509,
      "cally": 5510,
      "cting": 5511,
      "cises": 5512,
      "cery": 5513,
      "clicked": 5514,
      "dr": 5515,
      "dou": 5516,
      "dom": 5517,
      "dare": 5518,
      "det": 5519,
      "dep": 5520,
      "date": 5521,
      "dred": 5522,
      "dled": 5523,
      "daisy": 5524,
      "depend": 5525,
      "dents": 5526,
      "daring": 5527,
      "drains": 5528,
      "ech": 5529,
      "emy": 5530,
      "echo": 5531,
      "email": 5532,
      "fer": 5533,
      "fted": 5534,
      "fare": 5535,
      "fab": 5536,
      "fts": 5537,
      "five": 5538,
      "fuses": 5539,
      "faded": 5540,
      "gg": 5541,
      "gen": 5542,
      "gor": 5543,
      "gut": 5544,
      "gig": 5545,
      "gross": 5546,
      "gorge": 5547,
      "glistening": 5548,
      "gallo": 5549,
      "hour": 5550,
      "hunt": 5551,
      "hits": 5552,
      "hip": 5553,
      "huff": 5554,
      "ibbled": 5555,
      "ibly": 5556,
      "joking": 5557,
      "kked": 5558,
      "kens": 5559,
      "kward": 5560,
      "lt": 5561,
      "lang": 5562,
      "lung": 5563,
      "lens": 5564,
      "mass": 5565,
      "mies": 5566,
      "mater": 5567,
      "mister": 5568,
      "miest": 5569,
      "mower": 5570,
      "nu": 5571,
      "nif": 5572,
      "nning": 5573,
      "ngest": 5574,
      "nier": 5575,
      "nces": 5576,
      "nibbled": 5577,
      "ox": 5578,
      "oil": 5579,
      "ots": 5580,
      "oink": 5581,
      "oppos": 5582,
      "pon": 5583,
      "pid": 5584,
      "pal": 5585,
      "por": 5586,
      "pun": 5587,
      "pout": 5588,
      "para": 5589,
      "pts": 5590,
      "panc": 5591,
      "poun": 5592,
      "pberry": 5593,
      "panic": 5594,
      "price": 5595,
      "rit": 5596,
      "ras": 5597,
      "rack": 5598,
      "rout": 5599,
      "rul": 5600,
      "rash": 5601,
      "rised": 5602,
      "rins": 5603,
      "rising": 5604,
      "sou": 5605,
      "sid": 5606,
      "sim": 5607,
      "sily": 5608,
      "sill": 5609,
      "swal": 5610,
      "sits": 5611,
      "sized": 5612,
      "scor": 5613,
      "sire": 5614,
      "six": 5615,
      "swords": 5616,
      "silk": 5617,
      "scour": 5618,
      "scal": 5619,
      "scur": 5620,
      "switch": 5621,
      "sipped": 5622,
      "sses": 5623,
      "stool": 5624,
      "somed": 5625,
      "tin": 5626,
      "tha": 5627,
      "tis": 5628,
      "tig": 5629,
      "tex": 5630,
      "tise": 5631,
      "tuck": 5632,
      "tcha": 5633,
      "twel": 5634,
      "ties": 5635,
      "tasks": 5636,
      "tier": 5637,
      "tions": 5638,
      "ud": 5639,
      "upp": 5640,
      "uli": 5641,
      "uct": 5642,
      "unex": 5643,
      "uage": 5644,
      "uation": 5645,
      "usted": 5646,
      "vy": 5647,
      "vit": 5648,
      "vend": 5649,
      "vag": 5650,
      "vab": 5651,
      "vate": 5652,
      "vive": 5653,
      "vant": 5654,
      "vours": 5655,
      "vinc": 5656,
      "vowed": 5657,
      "wid": 5658,
      "yon": 5659,
      "yone": 5660,
      "yme": 5661,
      "ygen": 5662,
      "zer": 5663,
      "zes": 5664,
      "zzy": 5665,
      "zier": 5666,
      "œve": 5667,
      "œOnce": 5668,
      "œSo": 5669,
      "œJohn": 5670,
      "œThis": 5671,
      "œfire": 5672,
      "œMummy": 5673,
      "œBe": 5674,
      "œAmy": 5675,
      "œSure": 5676,
      "œEmma": 5677,
      "œMum": 5678,
      "œhello": 5679,
      "œNext": 5680,
      "œWell": 5681,
      "œsock": 5682,
      "œYay": 5683,
      "œTake": 5684,
      "œWhee": 5685,
      "œQuick": 5686,
      "œWait": 5687,
      "œWelcome": 5688,
      "œBug": 5689,
      "œGlad": 5690,
      "œWin": 5691,
      "€,": 5692,
      "hest": 5693,
      "angrily": 5694,
      "thesl": 5695,
      "edges": 5696,
      "tock": 5697,
      "toward": 5698,
      "toaster": 5699,
      "tokens": 5700,
      "init": 5701,
      "infe": 5702,
      "inspec": 5703,
      "inking": 5704,
      "incre": 5705,
      "intr": 5706,
      "inated": 5707,
      "insec": 5708,
      "inned": 5709,
      "intent": 5710,
      "insepar": 5711,
      "inctive": 5712,
      "inarian": 5713,
      "rer": 5714,
      "rear": 5715,
      "reck": 5716,
      "rely": 5717,
      "reun": 5718,
      "rees": 5719,
      "resp": 5720,
      "reled": 5721,
      "rent": 5722,
      "remove": 5723,
      "restore": 5724,
      "removing": 5725,
      "reased": 5726,
      "recounted": 5727,
      "refuses": 5728,
      "iter": 5729,
      "iten": 5730,
      "itar": 5731,
      "itions": 5732,
      "wadd": 5733,
      "waists": 5734,
      "habit": 5735,
      "hamm": 5736,
      "hausted": 5737,
      "erâ": 5738,
      "ering": 5739,
      "eras": 5740,
      "erted": 5741,
      "eration": 5742,
      "erals": 5743,
      "enth": 5744,
      "enem": 5745,
      "enemy": 5746,
      "ony": 5747,
      "onds": 5748,
      "oma": 5749,
      "oms": 5750,
      "arily": 5751,
      "arter": 5752,
      "arched": 5753,
      "arled": 5754,
      "aroma": 5755,
      "savor": 5756,
      "ilar": 5757,
      "ilst": 5758,
      "ilure": 5759,
      "ility": 5760,
      "idence": 5761,
      "idents": 5762,
      "lever": 5763,
      "loaf": 5764,
      "loween": 5765,
      "loaded": 5766,
      "stal": 5767,
      "stare": 5768,
      "stain": 5769,
      "stif": 5770,
      "strea": 5771,
      "stung": 5772,
      "strolled": 5773,
      "ime": 5774,
      "imy": 5775,
      "imble": 5776,
      "immed": 5777,
      "impossible": 5778,
      "ala": 5779,
      "alley": 5780,
      "Hear": 5781,
      "Heaven": 5782,
      "ths": 5783,
      "thread": 5784,
      "thunder": 5785,
      "thud": 5786,
      "thimble": 5787,
      "irr": 5788,
      "bes": 5789,
      "beat": 5790,
      "beloved": 5791,
      "beats": 5792,
      "becomes": 5793,
      "beating": 5794,
      "vertise": 5795,
      "cker": 5796,
      "cking": 5797,
      "ckly": 5798,
      "ckered": 5799,
      "seas": 5800,
      "seag": 5801,
      "seven": 5802,
      "neys": 5803,
      "nect": 5804,
      "neither": 5805,
      "neath": 5806,
      "keen": 5807,
      "kest": 5808,
      "nooks": 5809,
      "uting": 5810,
      "utiful": 5811,
      "utious": 5812,
      "utions": 5813,
      "atened": 5814,
      "attem": 5815,
      "atitude": 5816,
      "igning": 5817,
      "igued": 5818,
      "sheâ": 5819,
      "sheet": 5820,
      "ado": 5821,
      "ady": 5822,
      "ades": 5823,
      "addre": 5824,
      "adds": 5825,
      "adually": 5826,
      "admir": 5827,
      "adult": 5828,
      "advertise": 5829,
      "plent": 5830,
      "plug": 5831,
      "plump": 5832,
      "amper": 5833,
      "amins": 5834,
      "amount": 5835,
      "soil": 5836,
      "socks": 5837,
      "soaked": 5838,
      "soaking": 5839,
      "sobbed": 5840,
      "ric": 5841,
      "rip": 5842,
      "ripe": 5843,
      "rips": 5844,
      "riosity": 5845,
      "rified": 5846,
      "pport": 5847,
      "youngest": 5848,
      "weake": 5849,
      "uncle": 5850,
      "unfair": 5851,
      "unbelie": 5852,
      "ungrateful": 5853,
      "unwell": 5854,
      "unlucky": 5855,
      "unately": 5856,
      "unknown": 5857,
      "unwraps": 5858,
      "unlocks": 5859,
      "unnecess": 5860,
      "unwinding": 5861,
      "lied": 5862,
      "livery": 5863,
      "lies": 5864,
      "liking": 5865,
      "esca": 5866,
      "chuck": 5867,
      "chute": 5868,
      "chunk": 5869,
      "goats": 5870,
      "gogg": 5871,
      "Lilyâ": 5872,
      "upside": 5873,
      "aside": 5874,
      "asant": 5875,
      "teddies": 5876,
      "hadow": 5877,
      "eling": 5878,
      "player": 5879,
      "playtime": 5880,
      "playroom": 5881,
      "playdate": 5882,
      "forwards": 5883,
      "boast": 5884,
      "bobbed": 5885,
      "endless": 5886,
      "etime": 5887,
      "wance": 5888,
      "smug": 5889,
      "smashed": 5890,
      "smarter": 5891,
      "shrank": 5892,
      "shrunk": 5893,
      "shimmering": 5894,
      "doe": 5895,
      "dot": 5896,
      "dozed": 5897,
      "dodge": 5898,
      "acking": 5899,
      "momâ": 5900,
      "noticing": 5901,
      "outing": 5902,
      "outrun": 5903,
      "outfits": 5904,
      "timid": 5905,
      "rol": 5906,
      "robe": 5907,
      "roamed": 5908,
      "rosy": 5909,
      "robbers": 5910,
      "roots": 5911,
      "somehow": 5912,
      "someplace": 5913,
      "rather": 5914,
      "rape": 5915,
      "raking": 5916,
      "raises": 5917,
      "raising": 5918,
      "rafts": 5919,
      "rapid": 5920,
      "terror": 5921,
      "terinarian": 5922,
      "terrified": 5923,
      "hollow": 5924,
      "hops": 5925,
      "hooting": 5926,
      "hoisted": 5927,
      "agrees": 5928,
      "sped": 5929,
      "spice": 5930,
      "spear": 5931,
      "spine": 5932,
      "spell": 5933,
      "spied": 5934,
      "spoken": 5935,
      "sprink": 5936,
      "spitting": 5937,
      "sprout": 5938,
      "spades": 5939,
      "cart": 5940,
      "fully": 5941,
      "theirs": 5942,
      "girls": 5943,
      "girlâ": 5944,
      "feature": 5945,
      "illum": 5946,
      "extre": 5947,
      "exact": 5948,
      "existed": 5949,
      "exhausted": 5950,
      "urning": 5951,
      "urgently": 5952,
      "urging": 5953,
      "canes": 5954,
      "canyon": 5955,
      "meâ": 5956,
      "mely": 5957,
      "moo": 5958,
      "moled": 5959,
      "moats": 5960,
      "movie": 5961,
      "mocking": 5962,
      "ranged": 5963,
      "coop": 5964,
      "code": 5965,
      "coach": 5966,
      "costu": 5967,
      "cozier": 5968,
      "umbling": 5969,
      "backwards": 5970,
      "backward": 5971,
      "abra": 5972,
      "absol": 5973,
      "icip": 5974,
      "loos": 5975,
      "loose": 5976,
      "funnier": 5977,
      "lluting": 5978,
      "manage": 5979,
      "manager": 5980,
      "icky": 5981,
      "stared": 5982,
      "faith": 5983,
      "fault": 5984,
      "fawn": 5985,
      "failure": 5986,
      "arkable": 5987,
      "owns": 5988,
      "napping": 5989,
      "naps": 5990,
      "nasty": 5991,
      "navy": 5992,
      "ops": 5993,
      "oped": 5994,
      "options": 5995,
      "operation": 5996,
      "stole": 5997,
      "stored": 5998,
      "stopping": 5999,
      "grill": 6000,
      "grump": 6001,
      "grinned": 6002,
      "gratitude": 6003,
      "gradually": 6004,
      "grumbling": 6005,
      "lap": 6006,
      "laid": 6007,
      "ruin": 6008,
      "rush": 6009,
      "ruct": 6010,
      "ease": 6011,
      "worst": 6012,
      "worse": 6013,
      "worthy": 6014,
      "worms": 6015,
      "ddy": 6016,
      "pride": 6017,
      "reech": 6018,
      "getic": 6019,
      "peat": 6020,
      "pecks": 6021,
      "peels": 6022,
      "peering": 6023,
      "oling": 6024,
      "Anyone": 6025,
      "whoever": 6026,
      "muddy": 6027,
      "quality": 6028,
      "goodby": 6029,
      "goodnight": 6030,
      "goodies": 6031,
      "goodness": 6032,
      "homes": 6033,
      "homemade": 6034,
      "homeless": 6035,
      "sadness": 6036,
      "everybody": 6037,
      "birdie": 6038,
      "declar": 6039,
      "decrease": 6040,
      "declined": 6041,
      "decreased": 6042,
      "itely": 6043,
      "scariness": 6044,
      "ders": 6045,
      "dered": 6046,
      "cares": 6047,
      "carefree": 6048,
      "caretak": 6049,
      "spect": 6050,
      "deciding": 6051,
      "cact": 6052,
      "caused": 6053,
      "cautious": 6054,
      "bedtime": 6055,
      "shaved": 6056,
      "shall": 6057,
      "retch": 6058,
      "returning": 6059,
      "ials": 6060,
      "Jackâ": 6061,
      "West": 6062,
      "Wearing": 6063,
      "downs": 6064,
      "usia": 6065,
      "usually": 6066,
      "blur": 6067,
      "blink": 6068,
      "blank": 6069,
      "clothesl": 6070,
      "post": 6071,
      "poof": 6072,
      "pokes": 6073,
      "polluting": 6074,
      "comets": 6075,
      "whined": 6076,
      "whiten": 6077,
      "whilst": 6078,
      "whirr": 6079,
      "rungs": 6080,
      "runnning": 6081,
      "scaredy": 6082,
      "arning": 6083,
      "knowled": 6084,
      "useless": 6085,
      "wills": 6086,
      "deal": 6087,
      "defin": 6088,
      "demon": 6089,
      "detour": 6090,
      "delivery": 6091,
      "learns": 6092,
      "buds": 6093,
      "bubbled": 6094,
      "tale": 6095,
      "tapping": 6096,
      "mast": 6097,
      "thisâ": 6098,
      "thistle": 6099,
      "watered": 6100,
      "clink": 6101,
      "anytime": 6102,
      "ishly": 6103,
      "sunâ": 6104,
      "sunburnt": 6105,
      "catâ": 6106,
      "cation": 6107,
      "anticip": 6108,
      "greet": 6109,
      "gress": 6110,
      "wardro": 6111,
      "hardest": 6112,
      "Thatâ": 6113,
      "chef": 6114,
      "checks": 6115,
      "cheated": 6116,
      "overcome": 6117,
      "reaching": 6118,
      "cleared": 6119,
      "truth": 6120,
      "trusting": 6121,
      "Mail": 6122,
      "prettier": 6123,
      "umph": 6124,
      "handing": 6125,
      "handsome": 6126,
      "pucker": 6127,
      "untied": 6128,
      "untangled": 6129,
      "venir": 6130,
      "gardener": 6131,
      "gardening": 6132,
      "pause": 6133,
      "papa": 6134,
      "paused": 6135,
      "pauses": 6136,
      "explode": 6137,
      "calls": 6138,
      "Whatâ": 6139,
      "assured": 6140,
      "combed": 6141,
      "command": 6142,
      "commotion": 6143,
      "Johnâ": 6144,
      "surged": 6145,
      "survive": 6146,
      "hasn": 6147,
      "swip": 6148,
      "swung": 6149,
      "izer": 6150,
      "ization": 6151,
      "joyful": 6152,
      "joystick": 6153,
      "placeâ": 6154,
      "staying": 6155,
      "sharer": 6156,
      "brag": 6157,
      "braved": 6158,
      "bravo": 6159,
      "leap": 6160,
      "leather": 6161,
      "leaking": 6162,
      "lettu": 6163,
      "Lucyâ": 6164,
      "perly": 6165,
      "perched": 6166,
      "perfu": 6167,
      "perately": 6168,
      "permission": 6169,
      "tress": 6170,
      "treasured": 6171,
      "trekked": 6172,
      "shock": 6173,
      "shopping": 6174,
      "shovel": 6175,
      "obtain": 6176,
      "peopleâ": 6177,
      "eyeshadow": 6178,
      "flecks": 6179,
      "ctic": 6180,
      "sues": 6181,
      "suits": 6182,
      "suspend": 6183,
      "suspic": 6184,
      "support": 6185,
      "underneath": 6186,
      "smiley": 6187,
      "strongâ": 6188,
      "lightly": 6189,
      "lightning": 6190,
      "lightest": 6191,
      "impse": 6192,
      "hardly": 6193,
      "wondering": 6194,
      "consid": 6195,
      "convinc": 6196,
      "stepping": 6197,
      "members": 6198,
      "keeping": 6199,
      "chilly": 6200,
      "watchful": 6201,
      "bravest": 6202,
      "bravely": 6203,
      "flat": 6204,
      "flakes": 6205,
      "magcally": 6206,
      "magnif": 6207,
      "headache": 6208,
      "throne": 6209,
      "slimy": 6210,
      "noiseâ": 6211,
      "doorstep": 6212,
      "holes": 6213,
      "Loops": 6214,
      "paints": 6215,
      "monade": 6216,
      "teases": 6217,
      "iously": 6218,
      "chore": 6219,
      "chopped": 6220,
      "cleanly": 6221,
      "displayed": 6222,
      "disappear": 6223,
      "disapointed": 6224,
      "parts": 6225,
      "parrot": 6226,
      "single": 6227,
      "workers": 6228,
      "workshop": 6229,
      "realizing": 6230,
      "realization": 6231,
      "rabbits": 6232,
      "rained": 6233,
      "sticky": 6234,
      "sticking": 6235,
      "warms": 6236,
      "Looks": 6237,
      "Looking": 6238,
      "cherished": 6239,
      "ferences": 6240,
      "colder": 6241,
      "nerves": 6242,
      "yelped": 6243,
      "chains": 6244,
      "gladly": 6245,
      "squigg": 6246,
      "squaw": 6247,
      "tables": 6248,
      "tablecloth": 6249,
      "sweetly": 6250,
      "sweetest": 6251,
      "flopped": 6252,
      "touches": 6253,
      "buttery": 6254,
      "grassy": 6255,
      "dressing": 6256,
      "guided": 6257,
      "guitar": 6258,
      "ientist": 6259,
      "couple": 6260,
      "mary": 6261,
      "marched": 6262,
      "marvel": 6263,
      "marriage": 6264,
      "rightful": 6265,
      "Donâ": 6266,
      "twists": 6267,
      "traded": 6268,
      "trimmed": 6269,
      "restaur": 6270,
      "drier": 6271,
      "drifted": 6272,
      "peddled": 6273,
      "snarled": 6274,
      "ignition": 6275,
      "creamy": 6276,
      "dropping": 6277,
      "drooling": 6278,
      "potions": 6279,
      "ffled": 6280,
      "planning": 6281,
      "planned": 6282,
      "Which": 6283,
      "prints": 6284,
      "control": 6285,
      "favorites": 6286,
      "dining": 6287,
      "dinos": 6288,
      "onsib": 6289,
      "grandmother": 6290,
      "granddaughter": 6291,
      "grandfather": 6292,
      "Too": 6293,
      "Toys": 6294,
      "Towards": 6295,
      "teacherâ": 6296,
      "horrible": 6297,
      "presto": 6298,
      "press": 6299,
      "precise": 6300,
      "prepared": 6301,
      "presen": 6302,
      "prefer": 6303,
      "preferences": 6304,
      "welcoming": 6305,
      "colony": 6306,
      "petting": 6307,
      "baa": 6308,
      "bathe": 6309,
      "baked": 6310,
      "baffled": 6311,
      "hides": 6312,
      "softness": 6313,
      "softest": 6314,
      "process": 6315,
      "protested": 6316,
      "prospect": 6317,
      "progress": 6318,
      "properly": 6319,
      "birdsong": 6320,
      "surprisedâ": 6321,
      "fireplace": 6322,
      "firework": 6323,
      "drawers": 6324,
      "froze": 6325,
      "situation": 6326,
      "closes": 6327,
      "touching": 6328,
      "Something": 6329,
      "hilltop": 6330,
      "mostly": 6331,
      "secretly": 6332,
      "dreamt": 6333,
      "dreamland": 6334,
      "appears": 6335,
      "continue": 6336,
      "purred": 6337,
      "purchase": 6338,
      "purrs": 6339,
      "signature": 6340,
      "talks": 6341,
      "Bee": 6342,
      "Being": 6343,
      "cuts": 6344,
      "visits": 6345,
      "whiteboard": 6346,
      "swimsuits": 6347,
      "Spotâ": 6348,
      "oohed": 6349,
      "inserted": 6350,
      "fairies": 6351,
      "Gotcha": 6352,
      "faraway": 6353,
      "matched": 6354,
      "matches": 6355,
      "mattress": 6356,
      "Bennyâ": 6357,
      "rubbish": 6358,
      "rowing": 6359,
      "rowboat": 6360,
      "tripped": 6361,
      "tripping": 6362,
      "triumph": 6363,
      "tighten": 6364,
      "creativity": 6365,
      "minding": 6366,
      "forgotten": 6367,
      "tasting": 6368,
      "spoonful": 6369,
      "coral": 6370,
      "sisters": 6371,
      "kitten": 6372,
      "reluct": 6373,
      "strewn": 6374,
      "addition": 6375,
      "napkins": 6376,
      "candies": 6377,
      "hideout": 6378,
      "pleaded": 6379,
      "pleasant": 6380,
      "writer": 6381,
      "growl": 6382,
      "grows": 6383,
      "strating": 6384,
      "wasnâ": 6385,
      "sparkling": 6386,
      "explains": 6387,
      "childhood": 6388,
      "froggy": 6389,
      "Billyâ": 6390,
      "buildings": 6391,
      "Learn": 6392,
      "Lemonade": 6393,
      "descri": 6394,
      "designing": 6395,
      "desperately": 6396,
      "glided": 6397,
      "glimmering": 6398,
      "glimpse": 6399,
      "whee": 6400,
      "Grrr": 6401,
      "threatened": 6402,
      "smelt": 6403,
      "ulls": 6404,
      "joining": 6405,
      "buyer": 6406,
      "buying": 6407,
      "paths": 6408,
      "pathway": 6409,
      "snowstorm": 6410,
      "snowflakes": 6411,
      "belongings": 6412,
      "forks": 6413,
      "elephants": 6414,
      "mini": 6415,
      "mination": 6416,
      "minerals": 6417,
      "peak": 6418,
      "peaked": 6419,
      "believed": 6420,
      "believing": 6421,
      "meets": 6422,
      "meetings": 6423,
      "presentâ": 6424,
      "passing": 6425,
      "ounces": 6426,
      "riverbank": 6427,
      "happenned": 6428,
      "smelling": 6429,
      "mustn": 6430,
      "bruise": 6431,
      "lunchtime": 6432,
      "praise": 6433,
      "personality": 6434,
      "smoothly": 6435,
      "turning": 6436,
      "images": 6437,
      "meadows": 6438,
      "daddyâ": 6439,
      "calming": 6440,
      "server": 6441,
      "sermon": 6442,
      "answers": 6443,
      "shops": 6444,
      "fans": 6445,
      "merry": 6446,
      "merized": 6447,
      "miracle": 6448,
      "piled": 6449,
      "winning": 6450,
      "winner": 6451,
      "students": 6452,
      "noses": 6453,
      "copy": 6454,
      "comforted": 6455,
      "throwing": 6456,
      "musician": 6457,
      "dances": 6458,
      "misses": 6459,
      "misbehave": 6460,
      "misbehaving": 6461,
      "madder": 6462,
      "bellies": 6463,
      "solutions": 6464,
      "owls": 6465,
      "startled": 6466,
      "crackle": 6467,
      "Goodnight": 6468,
      "dived": 6469,
      "dience": 6470,
      "highest": 6471,
      "kicks": 6472,
      "mixing": 6473,
      "cardboard": 6474,
      "footsteps": 6475,
      "bringing": 6476,
      "crawls": 6477,
      "curled": 6478,
      "current": 6479,
      "rounds": 6480,
      "slice": 6481,
      "valued": 6482,
      "energetic": 6483,
      "stirrer": 6484,
      "utely": 6485,
      "attitude": 6486,
      "attacking": 6487,
      "planting": 6488,
      "forgets": 6489,
      "speck": 6490,
      "speech": 6491,
      "Helping": 6492,
      "collection": 6493,
      "affe": 6494,
      "fuzzy": 6495,
      "hangs": 6496,
      "tained": 6497,
      "wishing": 6498,
      "admit": 6499,
      "poolside": 6500,
      "blocking": 6501,
      "whispering": 6502,
      "relaxing": 6503,
      "awful": 6504,
      "awkward": 6505,
      "crannies": 6506,
      "pouring": 6507,
      "wisely": 6508,
      "yesterday": 6509,
      "yearning": 6510,
      "zzled": 6511,
      "ribbit": 6512,
      "ribbled": 6513,
      "storms": 6514,
      "rudely": 6515,
      "Pale": 6516,
      "gasp": 6517,
      "pigs": 6518,
      "trainers": 6519,
      "strings": 6520,
      "nailed": 6521,
      "frowns": 6522,
      "marketplace": 6523,
      "celebrating": 6524,
      "ails": 6525,
      "widely": 6526,
      "healing": 6527,
      "stretching": 6528,
      "stretches": 6529,
      "beetles": 6530,
      "shyly": 6531,
      "sliding": 6532,
      "bowls": 6533,
      "chairs": 6534,
      "matters": 6535,
      "Whoâ": 6536,
      "gifts": 6537,
      "pinching": 6538,
      "popcorn": 6539,
      "tucks": 6540,
      "tubes": 6541,
      "tickle": 6542,
      "tickling": 6543,
      "engage": 6544,
      "stumble": 6545,
      "rosemary": 6546,
      "spreading": 6547,
      "picnics": 6548,
      "pencils": 6549,
      "active": 6550,
      "action": 6551,
      "actions": 6552,
      "activity": 6553,
      "bandage": 6554,
      "baskets": 6555,
      "flickered": 6556,
      "towels": 6557,
      "moonlight": 6558,
      "leafy": 6559,
      "accidents": 6560,
      "suitcases": 6561,
      "daily": 6562,
      "scamper": 6563,
      "scrape": 6564,
      "screech": 6565,
      "scientist": 6566,
      "scribbled": 6567,
      "supplied": 6568,
      "suprised": 6569,
      "waggy": 6570,
      "boarded": 6571,
      "roads": 6572,
      "trustworthy": 6573,
      "puzzled": 6574,
      "finishing": 6575,
      "discoveries": 6576,
      "nervously": 6577,
      "attics": 6578,
      "swamp": 6579,
      "portion": 6580,
      "wiser": 6581,
      "wisdom": 6582,
      "leading": 6583,
      "sells": 6584,
      "lifetime": 6585,
      "lipstick": 6586,
      "changing": 6587,
      "booth": 6588,
      "rockets": 6589,
      "examining": 6590,
      "examination": 6591,
      "Alas": 6592,
      "Trust": 6593,
      "apologised": 6594,
      "apologizer": 6595,
      "cadabra": 6596,
      "pected": 6597,
      "peculi": 6598,
      "rakes": 6599,
      "sights": 6600,
      "sighting": 6601,
      "soldier": 6602,
      "weeks": 6603,
      "extraordinary": 6604,
      "extravag": 6605,
      "builders": 6606,
      "protected": 6607,
      "protects": 6608,
      "protecting": 6609,
      "barking": 6610,
      "melted": 6611,
      "rhyme": 6612,
      "rarer": 6613,
      "facing": 6614,
      "facts": 6615,
      "delightful": 6616,
      "streaming": 6617,
      "streamers": 6618,
      "recording": 6619,
      "flapping": 6620,
      "flavours": 6621,
      "pumpkins": 6622,
      "sweep": 6623,
      "incts": 6624,
      "remarkable": 6625,
      "sprays": 6626,
      "clumsily": 6627,
      "disgust": 6628,
      "disgusted": 6629,
      "polishing": 6630,
      "photos": 6631,
      "determination": 6632,
      "eyeing": 6633,
      "lays": 6634,
      "mesmerized": 6635,
      "sinks": 6636,
      "sneezing": 6637,
      "sneezes": 6638,
      "vacation": 6639,
      "yells": 6640,
      "orders": 6641,
      "beeped": 6642,
      "licking": 6643,
      "measures": 6644,
      "lawn": 6645,
      "conditions": 6646,
      "appropri": 6647,
      "borrowing": 6648,
      "corners": 6649,
      "distances": 6650,
      "spaces": 6651,
      "protection": 6652,
      "remains": 6653,
      "Meriâ": 6654,
      "Still": 6655,
      "Strong": 6656,
      "Stupid": 6657,
      "Stretch": 6658,
      "awely": 6659,
      "awesome": 6660,
      "awestruck": 6661,
      "burst": 6662,
      "burps": 6663,
      "bumps": 6664,
      "burns": 6665,
      "chatty": 6666,
      "films": 6667,
      "human": 6668,
      "humans": 6669,
      "menus": 6670,
      "sips": 6671,
      "tips": 6672,
      "requests": 6673,
      "requested": 6674,
      "stuffing": 6675,
      "behaveâ": 6676,
      "racing": 6677,
      "racers": 6678,
      "cartoon": 6679,
      "feeding": 6680,
      "hedgewit": 6681,
      "fooled": 6682,
      "operator": 6683,
      "compete": 6684,
      "bloomed": 6685,
      "ignoring": 6686,
      "baseball": 6687,
      "tickets": 6688,
      "silverware": 6689,
      "Boats": 6690,
      "North": 6691,
      "Skipping": 6692,
      "Skulls": 6693,
      "ceries": 6694,
      "cowboys": 6695,
      "mandala": 6696,
      "pans": 6697,
      "panels": 6698,
      "herbs": 6699,
      "beams": 6700,
      "webs": 6701,
      "chorus": 6702,
      "chirp": 6703,
      "chirped": 6704,
      "chirps": 6705,
      "shortcut": 6706,
      "exercises": 6707,
      "clears": 6708,
      "cuddle": 6709,
      "cuddly": 6710,
      "cuddling": 6711,
      "stealing": 6712,
      "teasier": 6713,
      "tornado": 6714,
      "supermarket": 6715,
      "introducing": 6716,
      "Tonight": 6717,
      "Unite": 6718,
      "honking": 6719,
      "jugs": 6720,
      "marker": 6721,
      "private": 6722,
      "prickly": 6723,
      "render": 6724,
      "arguing": 6725,
      "attracting": 6726,
      "weeping": 6727,
      "shrinkâ": 6728,
      "shrinkerâ": 6729,
      "friendships": 6730,
      "speaking": 6731,
      "skulls": 6732,
      "delivered": 6733,
      "delivering": 6734,
      "buckles": 6735,
      "crowds": 6736,
      "crowded": 6737,
      "squeezing": 6738,
      "pedaling": 6739,
      "suggestion": 6740,
      "bananas": 6741,
      "bicycles": 6742,
      "microwave": 6743,
      "scattering": 6744,
      "Better": 6745,
      "Exit": 6746,
      "Explain": 6747,
      "Getting": 6748,
      "Ready": 6749,
      "banged": 6750,
      "banging": 6751,
      "crashed": 6752,
      "clicking": 6753,
      "dives": 6754,
      "knots": 6755,
      "rumble": 6756,
      "rumbled": 6757,
      "rumbling": 6758,
      "sneaked": 6759,
      "swordfighting": 6760,
      "instant": 6761,
      "instruct": 6762,
      "instincts": 6763,
      "igloos": 6764,
      "sheepishly": 6765,
      "chimneys": 6766,
      "indeed": 6767,
      "newspapers": 6768,
      "decoration": 6769,
      "poems": 6770,
      "demands": 6771,
      "surrendered": 6772,
      "suffered": 6773,
      "horns": 6774,
      "diamonds": 6775,
      "scoops": 6776,
      "scooped": 6777,
      "incredibly": 6778,
      "completely": 6779,
      "luxuries": 6780,
      "luxurious": 6781,
      "Halloween": 6782,
      "Quack": 6783,
      "affes": 6784,
      "broomstick": 6785,
      "darted": 6786,
      "darkest": 6787,
      "direct": 6788,
      "hunts": 6789,
      "hundred": 6790,
      "knees": 6791,
      "knelt": 6792,
      "snores": 6793,
      "scolds": 6794,
      "tours": 6795,
      "reverse": 6796,
      "repairing": 6797,
      "hallway": 6798,
      "behaved": 6799,
      "soapy": 6800,
      "hooted": 6801,
      "uringly": 6802,
      "position": 6803,
      "positions": 6804,
      "buzzing": 6805,
      "buzzes": 6806,
      "combined": 6807,
      "compliment": 6808,
      "surrounded": 6809,
      "surrounding": 6810,
      "performers": 6811,
      "permitted": 6812,
      "trembled": 6813,
      "trembling": 6814,
      "connects": 6815,
      "appreciated": 6816,
      "appreciation": 6817,
      "fluttered": 6818,
      "tempted": 6819,
      "twirling": 6820,
      "sniffles": 6821,
      "sniffed": 6822,
      "disturbing": 6823,
      "mayorâ": 6824,
      "suffering": 6825,
      "fascinating": 6826,
      "instrument": 6827,
      "!'\"": 6828,
      "...": 6829,
      "...\"": 6830,
      "Curiosity": 6831,
      "Haha": 6832,
      "Shhh": 6833,
      "centre": 6834,
      "charge": 6835,
      "fetches": 6836,
      "fondly": 6837,
      "fondness": 6838,
      "grant": 6839,
      "swayed": 6840,
      "swaying": 6841,
      "swooped": 6842,
      "wingbeats": 6843,
      "zigzags": 6844,
      "heels": 6845,
      "heavenly": 6846,
      "tomatoes": 6847,
      "releases": 6848,
      "rewarded": 6849,
      "stamps": 6850,
      "stripes": 6851,
      "ignores": 6852,
      "unpacking": 6853,
      "entertained": 6854,
      "rustled": 6855,
      "rustling": 6856,
      "complained": 6857,
      "confidence": 6858,
      "discussing": 6859,
      "accomplish": 6860,
      "twinkle": 6861,
      "twinkled": 6862,
      "twinkling": 6863,
      "contained": 6864,
      "satisfied": 6865,
      "circling": 6866,
      "universe": 6867,
      "applaud": 6868,
      "revealing": 6869,
      "experiencing": 6870,
      "certainly": 6871,
      "superheroes": 6872,
      "Excited": 6873,
      "Quickly": 6874,
      "snoozing": 6875,
      "behavior": 6876,
      "Tuesdays": 6877,
      "envelopes": 6878,
      "possessions": 6879,
      "Dinner": 6880,
      "Dinosaur": 6881,
      "Imagine": 6882,
      "Imagined": 6883,
      "Running": 6884,
      "Spider": 6885,
      "Spiders": 6886,
      "Share": 6887,
      "Shapes": 6888,
      "Word": 6889,
      "Working": 6890,
      "camping": 6891,
      "campfire": 6892,
      "drums": 6893,
      "giraffe": 6894,
      "giraffes": 6895,
      "grocery": 6896,
      "groceries": 6897,
      "grazed": 6898,
      "grazing": 6899,
      "jiggly": 6900,
      "jiggled": 6901,
      "limits": 6902,
      "litttle": 6903,
      "littler": 6904,
      "obey": 6905,
      "obeyed": 6906,
      "tumbling": 6907,
      "tummies": 6908,
      "yummiest": 6909,
      "œhiâ": 6910,
      "annoyed": 6911,
      "annoying": 6912,
      "reassured": 6913,
      "reassuringly": 6914,
      "style": 6915,
      "stroked": 6916,
      "strokes": 6917,
      "allowance": 6918,
      "necessarily": 6919,
      "adjusted": 6920,
      "spiciest": 6921,
      "meatballs": 6922,
      "cocoa": 6923,
      "cocoons": 6924,
      "quarrel": 6925,
      "quarreled": 6926,
      "decision": 6927,
      "decisions": 6928,
      "puffy": 6929,
      "observing": 6930,
      "observant": 6931,
      "blobs": 6932,
      "blossomed": 6933,
      "blossoms": 6934,
      "fluffed": 6935,
      "Doesn": 6936,
      "Instantly": 6937,
      "Instinctive": 6938,
      "visitors": 6939,
      "involved": 6940,
      "involving": 6941,
      "popsicle": 6942,
      "popsicles": 6943,
      "interrupt": 6944,
      "interrupting": 6945,
      "thousands": 6946,
      "3rd": 6947,
      "Arctic": 6948,
      "Another": 6949,
      "Abracadabra": 6950,
      "Achoo": 6951,
      "Apologize": 6952,
      "Ahhh": 6953,
      "Bravo": 6954,
      "Beautiful": 6955,
      "Cooking": 6956,
      "Cheese": 6957,
      "Cream": 6958,
      "Carefully": 6959,
      "Choose": 6960,
      "Climbing": 6961,
      "Deal": 6962,
      "Despite": 6963,
      "Dangerous": 6964,
      "Enjoy": 6965,
      "Feeling": 6966,
      "Fuel": 6967,
      "Frustrated": 6968,
      "Follow": 6969,
      "Folding": 6970,
      "Fortunately": 6971,
      "Gently": 6972,
      "Higher": 6973,
      "Hurry": 6974,
      "Igloos": 6975,
      "Keep": 6976,
      "Kids": 6977,
      "Knock": 6978,
      "Knowing": 6979,
      "Phew": 6980,
      "Problem": 6981,
      "Pretty": 6982,
      "Race": 6983,
      "Roar": 6984,
      "Repeat": 6985,
      "Rrrr": 6986,
      "Ribbit": 6987,
      "Slam": 6988,
      "Swim": 6989,
      "Splash": 6990,
      "Sugar": 6991,
      "Surrender": 6992,
      "Sighing": 6993,
      "Tape": 6994,
      "Teasing": 6995,
      "Under": 6996,
      "Woof": 6997,
      "Whisper": 6998,
      "Yesterday": 6999,
      "ahhed": 7000,
      "audience": 7001,
      "apron": 7002,
      "bamboo": 7003,
      "bondâ": 7004,
      "cliff": 7005,
      "croaked": 7006,
      "cousins": 7007,
      "drinking": 7008,
      "double": 7009,
      "details": 7010,
      "depths": 7011,
      "depends": 7012,
      "emails": 7013,
      "farewell": 7014,
      "fabric": 7015,
      "gorilla": 7016,
      "giggling": 7017,
      "gorgeous": 7018,
      "galloping": 7019,
      "hips": 7020,
      "language": 7021,
      "massive": 7022,
      "materials": 7023,
      "nuzzled": 7024,
      "oxygen": 7025,
      "opposite": 7026,
      "pondered": 7027,
      "palm": 7028,
      "porch": 7029,
      "punches": 7030,
      "parachute": 7031,
      "pancakes": 7032,
      "pounced": 7033,
      "prices": 7034,
      "ritual": 7035,
      "raspberry": 7036,
      "ruler": 7037,
      "rinsed": 7038,
      "souvenir": 7039,
      "similar": 7040,
      "swallowed": 7041,
      "scored": 7042,
      "siren": 7043,
      "scourging": 7044,
      "scaled": 7045,
      "scurried": 7046,
      "someday": 7047,
      "thawed": 7048,
      "tissues": 7049,
      "tigers": 7050,
      "texture": 7051,
      "twelve": 7052,
      "upper": 7053,
      "unexpected": 7054,
      "vitamins": 7055,
      "vendor": 7056,
      "vably": 7057,
      "widened": 7058,
      "zero": 7059,
      "œveterinarian": 7060,
      "œhelloâ": 7061,
      "œBugs": 7062,
      "œWinning": 7063,
      "initial": 7064,
      "infected": 7065,
      "inspection": 7066,
      "increased": 7067,
      "intrigued": 7068,
      "insects": 7069,
      "intention": 7070,
      "inseparable": 7071,
      "rearranged": 7072,
      "reckless": 7073,
      "reunited": 7074,
      "responsib": 7075,
      "waddled": 7076,
      "hammered": 7077,
      "erasers": 7078,
      "enthusia": 7079,
      "enemies": 7080,
      "savored": 7081,
      "levers": 7082,
      "stallion": 7083,
      "stiff": 7084,
      "streak": 7085,
      "alleyways": 7086,
      "seagull": 7087,
      "nectar": 7088,
      "attempts": 7089,
      "addresses": 7090,
      "admiring": 7091,
      "advertisement": 7092,
      "plenty": 7093,
      "weakest": 7094,
      "unbelievably": 7095,
      "unnecessary": 7096,
      "escaped": 7097,
      "chuckled": 7098,
      "chunks": 7099,
      "goggles": 7100,
      "boastful": 7101,
      "endlessly": 7102,
      "rapidly": 7103,
      "spices": 7104,
      "sprinkles": 7105,
      "features": 7106,
      "illuminated": 7107,
      "extremely": 7108,
      "exactly": 7109,
      "costume": 7110,
      "absolutely": 7111,
      "fawns": 7112,
      "grumpiest": 7113,
      "goodbyes": 7114,
      "declared": 7115,
      "caretaker": 7116,
      "cactus": 7117,
      "clothesline": 7118,
      "whiteness": 7119,
      "knowledge": 7120,
      "definitely": 7121,
      "demonstrating": 7122,
      "anticipation": 7123,
      "wardrobe": 7124,
      "commands": 7125,
      "swiped": 7126,
      "lettuce": 7127,
      "perfume": 7128,
      "suspended": 7129,
      "suspiciously": 7130,
      "considered": 7131,
      "convincing": 7132,
      "magnifying": 7133,
      "disappearing": 7134,
      "squiggles": 7135,
      "squawked": 7136,
      "marveling": 7137,
      "restaurant": 7138,
      "presented": 7139,
      "preferred": 7140,
      "reluctantly": 7141,
      "describe": 7142,
      "musicians": 7143,
      "speechless": 7144,
      "scampered": 7145,
      "peculiar": 7146,
      "extravagance": 7147,
      "appropriate": 7148,
      "instructions": 7149,
      "Instinctively": 7150,
      "œveterinarianâ": 7151,
      "responsibility": 7152,
      "enthusiastic": 7153
    },
    "merges": [
      [
        "h",
        "e"
      ],
      [
        "a",
        "n"
      ],
      [
        "t",
        "he"
      ],
      [
        "e",
        "d"
      ],
      [
        "an",
        "d"
      ],
      [
        "t",
        "o"
      ],
      [
        "i",
        "n"
      ],
      [
        "r",
        "e"
      ],
      [
        "o",
        "u"
      ],
      [
        "i",
        "t"
      ],
      [
        "w",
        "a"
      ],
      [
        "h",
        "a"
      ],
      [
        "e",
        "r"
      ],
      [
        "e",
        "n"
      ],
      [
        "T",
        "he"
      ],
      [
        "wa",
        "s"
      ],
      [
        "o",
        "n"
      ],
      [
        "o",
        "m"
      ],
      [
        "a",
        "r"
      ],
      [
        "i",
        "s"
      ],
      [
        "in",
        "g"
      ],
      [
        "s",
        "a"
      ],
      [
        "i",
        "l"
      ],
      [
        "i",
        "d"
      ],
      [
        "l",
        "e"
      ],
      [
        "l",
        "o"
      ],
      [
        "a",
        "y"
      ],
      [
        "s",
        "t"
      ],
      [
        "i",
        "m"
      ],
      [
        "a",
        "l"
      ],
      [
        "o",
        "r"
      ],
      [
        "H",
        "e"
      ],
      [
        "S",
        "he"
      ],
      [
        "The",
        "y"
      ],
      [
        "he",
        "r"
      ],
      [
        "t",
        "h"
      ],
      [
        "i",
        "r"
      ],
      [
        "b",
        "e"
      ],
      [
        "v",
        "er"
      ],
      [
        "c",
        "k"
      ],
      [
        "s",
        "e"
      ],
      [
        "ha",
        "t"
      ],
      [
        "n",
        "e"
      ],
      [
        "k",
        "e"
      ],
      [
        "n",
        "o"
      ],
      [
        "u",
        "t"
      ],
      [
        "a",
        "t"
      ],
      [
        "l",
        "d"
      ],
      [
        "v",
        "e"
      ],
      [
        "sa",
        "id"
      ],
      [
        "c",
        "e"
      ],
      [
        "i",
        "g"
      ],
      [
        "s",
        "he"
      ],
      [
        "a",
        "d"
      ],
      [
        "p",
        "l"
      ],
      [
        "a",
        "m"
      ],
      [
        "w",
        "it"
      ],
      [
        "s",
        "o"
      ],
      [
        "wit",
        "h"
      ],
      [
        "l",
        "y"
      ],
      [
        "r",
        "i"
      ],
      [
        "p",
        "p"
      ],
      [
        "h",
        "is"
      ],
      [
        "k",
        "ed"
      ],
      [
        "y",
        "ou"
      ],
      [
        "w",
        "e"
      ],
      [
        "om",
        "e"
      ],
      [
        "o",
        "f"
      ],
      [
        "il",
        "y"
      ],
      [
        "u",
        "n"
      ],
      [
        "l",
        "i"
      ],
      [
        "ver",
        "y"
      ],
      [
        "e",
        "s"
      ],
      [
        "c",
        "h"
      ],
      [
        "g",
        "o"
      ],
      [
        "m",
        "y"
      ],
      [
        "d",
        "ay"
      ],
      [
        "L",
        "ily"
      ],
      [
        "u",
        "p"
      ],
      [
        "o",
        "w"
      ],
      [
        "a",
        "s"
      ],
      [
        "t",
        "hat"
      ],
      [
        "t",
        "ed"
      ],
      [
        "ha",
        "d"
      ],
      [
        "e",
        "l"
      ],
      [
        "pl",
        "ay"
      ],
      [
        "f",
        "or"
      ],
      [
        "the",
        "y"
      ],
      [
        "n",
        "d"
      ],
      [
        "a",
        "re"
      ],
      [
        "b",
        "o"
      ],
      [
        "en",
        "t"
      ],
      [
        "en",
        "d"
      ],
      [
        "ou",
        "ld"
      ],
      [
        "al",
        "l"
      ],
      [
        "I",
        "t"
      ],
      [
        "e",
        "t"
      ],
      [
        "o",
        "k"
      ],
      [
        "w",
        "an"
      ],
      [
        "ha",
        "pp"
      ],
      [
        "s",
        "m"
      ],
      [
        "it",
        "t"
      ],
      [
        "s",
        "h"
      ],
      [
        "d",
        "o"
      ],
      [
        "a",
        "ck"
      ],
      [
        "m",
        "om"
      ],
      [
        "no",
        "t"
      ],
      [
        "y",
        "s"
      ],
      [
        "ou",
        "nd"
      ],
      [
        "ou",
        "t"
      ],
      [
        "t",
        "im"
      ],
      [
        "the",
        "r"
      ],
      [
        "r",
        "y"
      ],
      [
        "h",
        "t"
      ],
      [
        "u",
        "g"
      ],
      [
        "itt",
        "le"
      ],
      [
        "r",
        "o"
      ],
      [
        ".",
        "\""
      ],
      [
        "a",
        "ke"
      ],
      [
        "l",
        "ittle"
      ],
      [
        "u",
        "l"
      ],
      [
        "s",
        "ome"
      ],
      [
        "b",
        "ig"
      ],
      [
        "ri",
        "end"
      ],
      [
        "tim",
        "e"
      ],
      [
        "f",
        "riend"
      ],
      [
        "th",
        "ing"
      ],
      [
        "happ",
        "y"
      ],
      [
        "r",
        "a"
      ],
      [
        "the",
        "re"
      ],
      [
        "B",
        "en"
      ],
      [
        "sa",
        "w"
      ],
      [
        "on",
        "e"
      ],
      [
        "t",
        "er"
      ],
      [
        "b",
        "ut"
      ],
      [
        "we",
        "re"
      ],
      [
        "id",
        "e"
      ],
      [
        "!",
        "\""
      ],
      [
        "h",
        "o"
      ],
      [
        "a",
        "g"
      ],
      [
        "the",
        "m"
      ],
      [
        "h",
        "im"
      ],
      [
        "O",
        "ne"
      ],
      [
        "s",
        "p"
      ],
      [
        "c",
        "ar"
      ],
      [
        "f",
        "ul"
      ],
      [
        "O",
        "n"
      ],
      [
        "sm",
        "il"
      ],
      [
        "the",
        "ir"
      ],
      [
        "ir",
        "l"
      ],
      [
        "g",
        "irl"
      ],
      [
        "On",
        "ce"
      ],
      [
        "f",
        "e"
      ],
      [
        "il",
        "l"
      ],
      [
        "v",
        "ed"
      ],
      [
        "wan",
        "ted"
      ],
      [
        "ha",
        "ve"
      ],
      [
        "T",
        "im"
      ],
      [
        "e",
        "x"
      ],
      [
        "T",
        "om"
      ],
      [
        "u",
        "r"
      ],
      [
        "in",
        "d"
      ],
      [
        "e",
        "c"
      ],
      [
        "g",
        "e"
      ],
      [
        "c",
        "an"
      ],
      [
        "m",
        "e"
      ],
      [
        "li",
        "ke"
      ],
      [
        "m",
        "o"
      ],
      [
        "r",
        "an"
      ],
      [
        "c",
        "o"
      ],
      [
        "up",
        "on"
      ],
      [
        "c",
        "ould"
      ],
      [
        "d",
        "id"
      ],
      [
        "he",
        "n"
      ],
      [
        "wa",
        "y"
      ],
      [
        "ig",
        "ht"
      ],
      [
        "u",
        "m"
      ],
      [
        "b",
        "ack"
      ],
      [
        "a",
        "b"
      ],
      [
        "a",
        "in"
      ],
      [
        "friend",
        "s"
      ],
      [
        "i",
        "c"
      ],
      [
        "w",
        "ent"
      ],
      [
        "?",
        "\""
      ],
      [
        "Y",
        "ou"
      ],
      [
        "r",
        "om"
      ],
      [
        "B",
        "ut"
      ],
      [
        "o",
        "d"
      ],
      [
        "lo",
        "o"
      ],
      [
        "he",
        "l"
      ],
      [
        "sa",
        "ys"
      ],
      [
        "he",
        "d"
      ],
      [
        "am",
        "e"
      ],
      [
        "f",
        "el"
      ],
      [
        "smil",
        "ed"
      ],
      [
        "f",
        "un"
      ],
      [
        "se",
        "e"
      ],
      [
        "ne",
        "w"
      ],
      [
        "l",
        "l"
      ],
      [
        "loo",
        "ked"
      ],
      [
        "m",
        "an"
      ],
      [
        "lo",
        "w"
      ],
      [
        "f",
        "o"
      ],
      [
        "s",
        "ide"
      ],
      [
        "u",
        "re"
      ],
      [
        "to",
        "o"
      ],
      [
        "i",
        "ck"
      ],
      [
        ",",
        "\""
      ],
      [
        "on",
        "g"
      ],
      [
        "ar",
        "d"
      ],
      [
        "hel",
        "p"
      ],
      [
        "st",
        "ar"
      ],
      [
        "ou",
        "g"
      ],
      [
        "f",
        "a"
      ],
      [
        "i",
        "ce"
      ],
      [
        "M",
        "om"
      ],
      [
        "bo",
        "y"
      ],
      [
        "ar",
        "k"
      ],
      [
        "fel",
        "t"
      ],
      [
        "m",
        "ake"
      ],
      [
        "ar",
        "ound"
      ],
      [
        "w",
        "ould"
      ],
      [
        "ow",
        "n"
      ],
      [
        "n",
        "a"
      ],
      [
        "o",
        "p"
      ],
      [
        "as",
        "ked"
      ],
      [
        "Tim",
        "my"
      ],
      [
        "s",
        "to"
      ],
      [
        "ad",
        "e"
      ],
      [
        "g",
        "r"
      ],
      [
        "l",
        "a"
      ],
      [
        "no",
        "w"
      ],
      [
        "o",
        "ther"
      ],
      [
        "wan",
        "t"
      ],
      [
        "a",
        "way"
      ],
      [
        "r",
        "u"
      ],
      [
        "e",
        "a"
      ],
      [
        "some",
        "thing"
      ],
      [
        "w",
        "or"
      ],
      [
        "d",
        "d"
      ],
      [
        "p",
        "r"
      ],
      [
        "lo",
        "ok"
      ],
      [
        "w",
        "hat"
      ],
      [
        "lo",
        "ved"
      ],
      [
        "am",
        "ed"
      ],
      [
        "it",
        "ed"
      ],
      [
        "h",
        "ug"
      ],
      [
        "ex",
        "c"
      ],
      [
        "m",
        "ade"
      ],
      [
        "re",
        "e"
      ],
      [
        "e",
        "p"
      ],
      [
        "ar",
        "a"
      ],
      [
        "S",
        "ara"
      ],
      [
        "ge",
        "ther"
      ],
      [
        "f",
        "rom"
      ],
      [
        "star",
        "ted"
      ],
      [
        "g",
        "et"
      ],
      [
        "p",
        "ut"
      ],
      [
        "ou",
        "d"
      ],
      [
        "t",
        "s"
      ],
      [
        "n",
        "amed"
      ],
      [
        "p",
        "e"
      ],
      [
        "o",
        "l"
      ],
      [
        "ag",
        "ain"
      ],
      [
        "A",
        "n"
      ],
      [
        "b",
        "ir"
      ],
      [
        "the",
        "n"
      ],
      [
        "w",
        "ho"
      ],
      [
        "m",
        "u"
      ],
      [
        "to",
        "gether"
      ],
      [
        "q",
        "u"
      ],
      [
        "a",
        "ve"
      ],
      [
        "w",
        "hen"
      ],
      [
        "go",
        "od"
      ],
      [
        "play",
        "ing"
      ],
      [
        "mo",
        "re"
      ],
      [
        "h",
        "ome"
      ],
      [
        "fe",
        "el"
      ],
      [
        "An",
        "na"
      ],
      [
        "t",
        "ake"
      ],
      [
        "exc",
        "ited"
      ],
      [
        "f",
        "ound"
      ],
      [
        "wa",
        "l"
      ],
      [
        "sa",
        "d"
      ],
      [
        "pp",
        "ed"
      ],
      [
        "go",
        "t"
      ],
      [
        "e",
        "very"
      ],
      [
        "bir",
        "d"
      ],
      [
        "d",
        "ec"
      ],
      [
        "you",
        "r"
      ],
      [
        "p",
        "ark"
      ],
      [
        "c",
        "ame"
      ],
      [
        "ou",
        "s"
      ],
      [
        "it",
        "e"
      ],
      [
        "th",
        "an"
      ],
      [
        "s",
        "s"
      ],
      [
        "s",
        "car"
      ],
      [
        "li",
        "ked"
      ],
      [
        "S",
        "u"
      ],
      [
        "d",
        "er"
      ],
      [
        "c",
        "are"
      ],
      [
        "thing",
        "s"
      ],
      [
        "b",
        "r"
      ],
      [
        "i",
        "f"
      ],
      [
        "oug",
        "ht"
      ],
      [
        "sp",
        "ec"
      ],
      [
        "dec",
        "id"
      ],
      [
        "ou",
        "r"
      ],
      [
        "c",
        "a"
      ],
      [
        "b",
        "ed"
      ],
      [
        "ou",
        "se"
      ],
      [
        "decid",
        "ed"
      ],
      [
        "d",
        "ad"
      ],
      [
        "s",
        "ha"
      ],
      [
        "o",
        "ld"
      ],
      [
        "re",
        "t"
      ],
      [
        "i",
        "al"
      ],
      [
        "ri",
        "ed"
      ],
      [
        "k",
        "ing"
      ],
      [
        "J",
        "ack"
      ],
      [
        "he",
        "re"
      ],
      [
        "ro",
        "om"
      ],
      [
        "an",
        "g"
      ],
      [
        "do",
        "g"
      ],
      [
        "W",
        "e"
      ],
      [
        "spec",
        "ial"
      ],
      [
        "d",
        "own"
      ],
      [
        "u",
        "s"
      ],
      [
        "at",
        "e"
      ],
      [
        "ab",
        "out"
      ],
      [
        "b",
        "l"
      ],
      [
        "c",
        "lo"
      ],
      [
        "J",
        "o"
      ],
      [
        "al",
        "ly"
      ],
      [
        "p",
        "o"
      ],
      [
        "s",
        "or"
      ],
      [
        "to",
        "ok"
      ],
      [
        "er",
        "s"
      ],
      [
        "i",
        "ve"
      ],
      [
        "S",
        "o"
      ],
      [
        "c",
        "ome"
      ],
      [
        "w",
        "h"
      ],
      [
        "w",
        "o"
      ],
      [
        "r",
        "un"
      ],
      [
        "is",
        "e"
      ],
      [
        "wa",
        "ys"
      ],
      [
        "b",
        "y"
      ],
      [
        "en",
        "ed"
      ],
      [
        "scar",
        "ed"
      ],
      [
        "f",
        "ind"
      ],
      [
        "ar",
        "n"
      ],
      [
        "S",
        "am"
      ],
      [
        "k",
        "now"
      ],
      [
        "s",
        "k"
      ],
      [
        "e",
        "ar"
      ],
      [
        "n",
        "y"
      ],
      [
        "j",
        "o"
      ],
      [
        "ea",
        "ch"
      ],
      [
        "u",
        "se"
      ],
      [
        "al",
        "ways"
      ],
      [
        "ne",
        "ver"
      ],
      [
        "sor",
        "ry"
      ],
      [
        "r",
        "ed"
      ],
      [
        "th",
        "ought"
      ],
      [
        "E",
        "very"
      ],
      [
        "i",
        "a"
      ],
      [
        "j",
        "u"
      ],
      [
        "to",
        "ys"
      ],
      [
        "care",
        "ful"
      ],
      [
        "out",
        "side"
      ],
      [
        "c",
        "hed"
      ],
      [
        "ab",
        "le"
      ],
      [
        "dd",
        "en"
      ],
      [
        "w",
        "ill"
      ],
      [
        "la",
        "ug"
      ],
      [
        "g",
        "ed"
      ],
      [
        "i",
        "e"
      ],
      [
        "A",
        "nd"
      ],
      [
        "d",
        "e"
      ],
      [
        "le",
        "arn"
      ],
      [
        "dden",
        "ly"
      ],
      [
        "M",
        "ia"
      ],
      [
        "b",
        "u"
      ],
      [
        "d",
        "re"
      ],
      [
        "t",
        "a"
      ],
      [
        "fo",
        "re"
      ],
      [
        "ra",
        "b"
      ],
      [
        "l",
        "ong"
      ],
      [
        "m",
        "a"
      ],
      [
        "th",
        "is"
      ],
      [
        "f",
        "ter"
      ],
      [
        "wa",
        "ter"
      ],
      [
        "is",
        "t"
      ],
      [
        "mu",
        "ch"
      ],
      [
        "L",
        "et"
      ],
      [
        "wa",
        "t"
      ],
      [
        "t",
        "ree"
      ],
      [
        "c",
        "l"
      ],
      [
        "in",
        "k"
      ],
      [
        "an",
        "y"
      ],
      [
        "is",
        "h"
      ],
      [
        "s",
        "un"
      ],
      [
        "bo",
        "x"
      ],
      [
        "c",
        "at"
      ],
      [
        "in",
        "e"
      ],
      [
        "sm",
        "all"
      ],
      [
        "v",
        "ent"
      ],
      [
        "an",
        "t"
      ],
      [
        "W",
        "hen"
      ],
      [
        "H",
        "er"
      ],
      [
        "g",
        "re"
      ],
      [
        "h",
        "ouse"
      ],
      [
        "in",
        "to"
      ],
      [
        "did",
        "n"
      ],
      [
        "h",
        "ow"
      ],
      [
        "wa",
        "r"
      ],
      [
        "Su",
        "ddenly"
      ],
      [
        "t",
        "y"
      ],
      [
        "The",
        "n"
      ],
      [
        "v",
        "ing"
      ],
      [
        "ex",
        "p"
      ],
      [
        "hug",
        "ged"
      ],
      [
        "l",
        "ad"
      ],
      [
        "g",
        "ave"
      ],
      [
        "n",
        "ice"
      ],
      [
        "to",
        "ld"
      ],
      [
        "ha",
        "r"
      ],
      [
        "be",
        "a"
      ],
      [
        "man",
        "y"
      ],
      [
        "T",
        "hat"
      ],
      [
        "b",
        "it"
      ],
      [
        "c",
        "he"
      ],
      [
        "o",
        "ver"
      ],
      [
        "sh",
        "ow"
      ],
      [
        "re",
        "a"
      ],
      [
        "f",
        "ly"
      ],
      [
        "k",
        "new"
      ],
      [
        "t",
        "ter"
      ],
      [
        "could",
        "n"
      ],
      [
        "pr",
        "oud"
      ],
      [
        "c",
        "le"
      ],
      [
        "in",
        "side"
      ],
      [
        "to",
        "y"
      ],
      [
        "t",
        "ru"
      ],
      [
        "se",
        "l"
      ],
      [
        "pl",
        "a"
      ],
      [
        "M",
        "a"
      ],
      [
        "i",
        "on"
      ],
      [
        "p",
        "ick"
      ],
      [
        "r",
        "ong"
      ],
      [
        "p",
        "ret"
      ],
      [
        "he",
        "ard"
      ],
      [
        "re",
        "ad"
      ],
      [
        "do",
        "ll"
      ],
      [
        "um",
        "p"
      ],
      [
        "d",
        "on"
      ],
      [
        "h",
        "and"
      ],
      [
        "p",
        "u"
      ],
      [
        "be",
        "ar"
      ],
      [
        "un",
        "t"
      ],
      [
        "v",
        "en"
      ],
      [
        "y",
        "es"
      ],
      [
        "lo",
        "ve"
      ],
      [
        "c",
        "y"
      ],
      [
        "l",
        "ed"
      ],
      [
        "g",
        "ard"
      ],
      [
        "sa",
        "y"
      ],
      [
        "than",
        "ked"
      ],
      [
        "gard",
        "en"
      ],
      [
        "p",
        "a"
      ],
      [
        "ne",
        "ed"
      ],
      [
        "ju",
        "st"
      ],
      [
        "exp",
        "lo"
      ],
      [
        "e",
        "at"
      ],
      [
        "be",
        "st"
      ],
      [
        "mom",
        "my"
      ],
      [
        "fa",
        "st"
      ],
      [
        "b",
        "all"
      ],
      [
        "c",
        "u"
      ],
      [
        "d",
        "y"
      ],
      [
        "unt",
        "il"
      ],
      [
        "c",
        "all"
      ],
      [
        "it",
        "s"
      ],
      [
        "of",
        "f"
      ],
      [
        "oug",
        "h"
      ],
      [
        "c",
        "re"
      ],
      [
        "f",
        "low"
      ],
      [
        "Mom",
        "my"
      ],
      [
        "W",
        "hat"
      ],
      [
        "t",
        "ry"
      ],
      [
        "ck",
        "s"
      ],
      [
        "as",
        "s"
      ],
      [
        "Ma",
        "x"
      ],
      [
        "b",
        "er"
      ],
      [
        "um",
        "my"
      ],
      [
        "c",
        "om"
      ],
      [
        "h",
        "n"
      ],
      [
        "in",
        "y"
      ],
      [
        "Jo",
        "hn"
      ],
      [
        "sk",
        "y"
      ],
      [
        "t",
        "ried"
      ],
      [
        "w",
        "on"
      ],
      [
        "p",
        "t"
      ],
      [
        "b",
        "le"
      ],
      [
        "s",
        "ur"
      ],
      [
        "an",
        "im"
      ],
      [
        "anim",
        "al"
      ],
      [
        "g",
        "ive"
      ],
      [
        "N",
        "o"
      ],
      [
        "u",
        "e"
      ],
      [
        "el",
        "l"
      ],
      [
        "ha",
        "s"
      ],
      [
        "be",
        "tter"
      ],
      [
        "bo",
        "ok"
      ],
      [
        "bea",
        "ut"
      ],
      [
        "sel",
        "f"
      ],
      [
        "t",
        "ing"
      ],
      [
        "H",
        "is"
      ],
      [
        "s",
        "w"
      ],
      [
        "w",
        "here"
      ],
      [
        "gr",
        "ound"
      ],
      [
        "ol",
        "ly"
      ],
      [
        "F",
        "rom"
      ],
      [
        "ad",
        "vent"
      ],
      [
        "play",
        "ed"
      ],
      [
        "i",
        "z"
      ],
      [
        "i",
        "ful"
      ],
      [
        "h",
        "ur"
      ],
      [
        "n",
        "ing"
      ],
      [
        "jo",
        "y"
      ],
      [
        "pla",
        "ce"
      ],
      [
        "beaut",
        "iful"
      ],
      [
        "so",
        "on"
      ],
      [
        "€",
        "™"
      ],
      [
        "st",
        "ay"
      ],
      [
        "as",
        "h"
      ],
      [
        "C",
        "an"
      ],
      [
        "l",
        "ist"
      ],
      [
        "sha",
        "re"
      ],
      [
        "Y",
        "es"
      ],
      [
        "learn",
        "ed"
      ],
      [
        "k",
        "ind"
      ],
      [
        "call",
        "ed"
      ],
      [
        "sur",
        "pr"
      ],
      [
        "advent",
        "ure"
      ],
      [
        "t",
        "wo"
      ],
      [
        "il",
        "e"
      ],
      [
        "laug",
        "hed"
      ],
      [
        "L",
        "u"
      ],
      [
        "j",
        "ump"
      ],
      [
        "an",
        "k"
      ],
      [
        "L",
        "il"
      ],
      [
        "b",
        "al"
      ],
      [
        "b",
        "ra"
      ],
      [
        "f",
        "i"
      ],
      [
        "st",
        "ill"
      ],
      [
        "be",
        "ca"
      ],
      [
        "clo",
        "s"
      ],
      [
        "beca",
        "use"
      ],
      [
        "M",
        "olly"
      ],
      [
        "le",
        "a"
      ],
      [
        "le",
        "t"
      ],
      [
        "Lu",
        "cy"
      ],
      [
        "b",
        "ug"
      ],
      [
        "l",
        "oud"
      ],
      [
        "p",
        "er"
      ],
      [
        "t",
        "re"
      ],
      [
        "sh",
        "iny"
      ],
      [
        "ur",
        "n"
      ],
      [
        "c",
        "r"
      ],
      [
        "e",
        "ven"
      ],
      [
        "am",
        "a"
      ],
      [
        "bo",
        "th"
      ],
      [
        "sh",
        "o"
      ],
      [
        "sh",
        "ould"
      ],
      [
        "op",
        "le"
      ],
      [
        "f",
        "am"
      ],
      [
        "f",
        "ish"
      ],
      [
        "o",
        "b"
      ],
      [
        "Lil",
        "a"
      ],
      [
        "w",
        "ind"
      ],
      [
        "bo",
        "at"
      ],
      [
        "pe",
        "ople"
      ],
      [
        "c",
        "ry"
      ],
      [
        "ke",
        "pt"
      ],
      [
        "no",
        "dd"
      ],
      [
        "wal",
        "ked"
      ],
      [
        "T",
        "h"
      ],
      [
        "e",
        "yes"
      ],
      [
        "f",
        "le"
      ],
      [
        "c",
        "t"
      ],
      [
        "n",
        "t"
      ],
      [
        "s",
        "u"
      ],
      [
        "he",
        "ar"
      ],
      [
        "ig",
        "h"
      ],
      [
        "un",
        "der"
      ],
      [
        "lo",
        "ts"
      ],
      [
        "smil",
        "e"
      ],
      [
        "animal",
        "s"
      ],
      [
        "d",
        "s"
      ],
      [
        "f",
        "in"
      ],
      [
        "be",
        "fore"
      ],
      [
        "fa",
        "ce"
      ],
      [
        "op",
        "ened"
      ],
      [
        "feel",
        "ing"
      ],
      [
        "Th",
        "ank"
      ],
      [
        "sp",
        "o"
      ],
      [
        "explo",
        "re"
      ],
      [
        "nodd",
        "ed"
      ],
      [
        "st",
        "rong"
      ],
      [
        "e",
        "ver"
      ],
      [
        "l",
        "ight"
      ],
      [
        "im",
        "p"
      ],
      [
        "ang",
        "ry"
      ],
      [
        "har",
        "d"
      ],
      [
        "won",
        "der"
      ],
      [
        "is",
        "hed"
      ],
      [
        "b",
        "lo"
      ],
      [
        "c",
        "on"
      ],
      [
        "st",
        "e"
      ],
      [
        "as",
        "k"
      ],
      [
        "ic",
        "ed"
      ],
      [
        "A",
        "fter"
      ],
      [
        "g",
        "rab"
      ],
      [
        "ay",
        "be"
      ],
      [
        "me",
        "m"
      ],
      [
        "every",
        "one"
      ],
      [
        "tru",
        "ck"
      ],
      [
        "fam",
        "ily"
      ],
      [
        "a",
        "pp"
      ],
      [
        "v",
        "o"
      ],
      [
        "is",
        "ed"
      ],
      [
        "go",
        "ing"
      ],
      [
        "ug",
        "ht"
      ],
      [
        "b",
        "ro"
      ],
      [
        "an",
        "e"
      ],
      [
        "ke",
        "ep"
      ],
      [
        "ch",
        "il"
      ],
      [
        "wat",
        "ch"
      ],
      [
        "bra",
        "ve"
      ],
      [
        "b",
        "ad"
      ],
      [
        "f",
        "l"
      ],
      [
        "i",
        "p"
      ],
      [
        "m",
        "ag"
      ],
      [
        "he",
        "ad"
      ],
      [
        "th",
        "r"
      ],
      [
        "fle",
        "w"
      ],
      [
        "A",
        "s"
      ],
      [
        "B",
        "ob"
      ],
      [
        "D",
        "ad"
      ],
      [
        "p",
        "ic"
      ],
      [
        "s",
        "l"
      ],
      [
        "no",
        "ise"
      ],
      [
        "ri",
        "es"
      ],
      [
        "ama",
        "z"
      ],
      [
        "f",
        "t"
      ],
      [
        "sa",
        "fe"
      ],
      [
        "lo",
        "t"
      ],
      [
        "hur",
        "t"
      ],
      [
        "le",
        "ave"
      ],
      [
        "not",
        "iced"
      ],
      [
        "bl",
        "ue"
      ],
      [
        "wa",
        "it"
      ],
      [
        "al",
        "so"
      ],
      [
        "li",
        "ved"
      ],
      [
        "do",
        "or"
      ],
      [
        "ra",
        "w"
      ],
      [
        "ho",
        "le"
      ],
      [
        "qu",
        "ick"
      ],
      [
        "ne",
        "x"
      ],
      [
        "ag",
        "e"
      ],
      [
        "co",
        "lo"
      ],
      [
        "u",
        "ck"
      ],
      [
        "me",
        "an"
      ],
      [
        "wal",
        "king"
      ],
      [
        "nex",
        "t"
      ],
      [
        "L",
        "o"
      ],
      [
        "a",
        "fter"
      ],
      [
        "p",
        "ain"
      ],
      [
        "or",
        "t"
      ],
      [
        "colo",
        "r"
      ],
      [
        "D",
        "o"
      ],
      [
        "M",
        "aybe"
      ],
      [
        "l",
        "low"
      ],
      [
        "t",
        "e"
      ],
      [
        "lo",
        "on"
      ],
      [
        "ide",
        "a"
      ],
      [
        "bal",
        "loon"
      ],
      [
        "m",
        "on"
      ],
      [
        "n",
        "ame"
      ],
      [
        "t",
        "ea"
      ],
      [
        "look",
        "ing"
      ],
      [
        "wat",
        "ched"
      ],
      [
        "cl",
        "im"
      ],
      [
        "gre",
        "at"
      ],
      [
        "i",
        "ous"
      ],
      [
        "r",
        "ing"
      ],
      [
        "t",
        "ell"
      ],
      [
        "y",
        "ear"
      ],
      [
        "le",
        "ep"
      ],
      [
        "se",
        "en"
      ],
      [
        "ch",
        "o"
      ],
      [
        "cle",
        "an"
      ],
      [
        "flow",
        "ers"
      ],
      [
        "d",
        "is"
      ],
      [
        "d",
        "if"
      ],
      [
        "re",
        "mem"
      ],
      [
        "ar",
        "m"
      ],
      [
        "il",
        "ly"
      ],
      [
        "ir",
        "st"
      ],
      [
        "we",
        "et"
      ],
      [
        "fo",
        "llow"
      ],
      [
        "by",
        "e"
      ],
      [
        "cu",
        "ri"
      ],
      [
        "vo",
        "ice"
      ],
      [
        "p",
        "ar"
      ],
      [
        "s",
        "ing"
      ],
      [
        "le",
        "ss"
      ],
      [
        "th",
        "ink"
      ],
      [
        "ir",
        "ed"
      ],
      [
        "wor",
        "k"
      ],
      [
        "Su",
        "e"
      ],
      [
        "quick",
        "ly"
      ],
      [
        "b",
        "or"
      ],
      [
        "g",
        "an"
      ],
      [
        "re",
        "al"
      ],
      [
        "do",
        "es"
      ],
      [
        "rab",
        "bit"
      ],
      [
        "list",
        "en"
      ],
      [
        "clos",
        "er"
      ],
      [
        "m",
        "or"
      ],
      [
        "en",
        "joy"
      ],
      [
        "He",
        "l"
      ],
      [
        "pick",
        "ed"
      ],
      [
        "mag",
        "ic"
      ],
      [
        "ck",
        "et"
      ],
      [
        "ra",
        "in"
      ],
      [
        "b",
        "ow"
      ],
      [
        "t",
        "ure"
      ],
      [
        "is",
        "y"
      ],
      [
        "es",
        "s"
      ],
      [
        "read",
        "y"
      ],
      [
        "T",
        "his"
      ],
      [
        "f",
        "r"
      ],
      [
        "n",
        "ight"
      ],
      [
        "t",
        "urn"
      ],
      [
        "st",
        "ick"
      ],
      [
        "car",
        "s"
      ],
      [
        "sto",
        "pped"
      ],
      [
        "us",
        "ed"
      ],
      [
        "wh",
        "ile"
      ],
      [
        "pic",
        "ture"
      ],
      [
        "i",
        "ed"
      ],
      [
        "t",
        "ired"
      ],
      [
        "se",
        "t"
      ],
      [
        "wal",
        "k"
      ],
      [
        "war",
        "m"
      ],
      [
        "pret",
        "ty"
      ],
      [
        "lea",
        "se"
      ],
      [
        "Lo",
        "ok"
      ],
      [
        "curi",
        "ous"
      ],
      [
        "a",
        "c"
      ],
      [
        "t",
        "al"
      ],
      [
        "to",
        "p"
      ],
      [
        "li",
        "e"
      ],
      [
        "good",
        "bye"
      ],
      [
        "laug",
        "h"
      ],
      [
        "remem",
        "ber"
      ],
      [
        "J",
        "im"
      ],
      [
        "p",
        "ul"
      ],
      [
        "Sara",
        "h"
      ],
      [
        "sl",
        "ide"
      ],
      [
        "c",
        "her"
      ],
      [
        "g",
        "ame"
      ],
      [
        "le",
        "s"
      ],
      [
        "th",
        "ree"
      ],
      [
        "se",
        "es"
      ],
      [
        "fe",
        "re"
      ],
      [
        "co",
        "ld"
      ],
      [
        "wor",
        "ld"
      ],
      [
        "Every",
        "one"
      ],
      [
        "hand",
        "s"
      ],
      [
        "a",
        "ir"
      ],
      [
        "f",
        "irst"
      ],
      [
        "n",
        "er"
      ],
      [
        "y",
        "el"
      ],
      [
        "dif",
        "fere"
      ],
      [
        "J",
        "ane"
      ],
      [
        "c",
        "ha"
      ],
      [
        "p",
        "en"
      ],
      [
        "ou",
        "ted"
      ],
      [
        "ne",
        "ar"
      ],
      [
        "like",
        "s"
      ],
      [
        "pret",
        "end"
      ],
      [
        "bro",
        "ther"
      ],
      [
        "N",
        "ow"
      ],
      [
        "g",
        "lad"
      ],
      [
        "s",
        "qu"
      ],
      [
        "be",
        "en"
      ],
      [
        "Jo",
        "e"
      ],
      [
        "fore",
        "st"
      ],
      [
        "differe",
        "nt"
      ],
      [
        "b",
        "rea"
      ],
      [
        "t",
        "able"
      ],
      [
        "sh",
        "outed"
      ],
      [
        "lad",
        "y"
      ],
      [
        "a",
        "isy"
      ],
      [
        "d",
        "ark"
      ],
      [
        "s",
        "weet"
      ],
      [
        "happ",
        "ened"
      ],
      [
        "tim",
        "es"
      ],
      [
        "look",
        "s"
      ],
      [
        "D",
        "aisy"
      ],
      [
        "f",
        "lo"
      ],
      [
        "to",
        "u"
      ],
      [
        "st",
        "and"
      ],
      [
        "st",
        "er"
      ],
      [
        "st",
        "ran"
      ],
      [
        "be",
        "gan"
      ],
      [
        "fa",
        "v"
      ],
      [
        "op",
        "en"
      ],
      [
        "thr",
        "ough"
      ],
      [
        "m",
        "ouse"
      ],
      [
        "s",
        "ure"
      ],
      [
        "er",
        "ed"
      ],
      [
        "but",
        "ter"
      ],
      [
        "gr",
        "ass"
      ],
      [
        "dre",
        "ss"
      ],
      [
        "any",
        "more"
      ],
      [
        "g",
        "u"
      ],
      [
        "i",
        "ent"
      ],
      [
        "be",
        "came"
      ],
      [
        "iz",
        "ed"
      ],
      [
        "c",
        "ou"
      ],
      [
        "f",
        "ill"
      ],
      [
        "g",
        "er"
      ],
      [
        "m",
        "ar"
      ],
      [
        "r",
        "ight"
      ],
      [
        "wa",
        "ved"
      ],
      [
        "ke",
        "t"
      ],
      [
        "pp",
        "y"
      ],
      [
        "Tom",
        "my"
      ],
      [
        "br",
        "ight"
      ],
      [
        "gre",
        "en"
      ],
      [
        "pu",
        "ppy"
      ],
      [
        "grab",
        "bed"
      ],
      [
        "D",
        "on"
      ],
      [
        "I",
        "n"
      ],
      [
        "s",
        "leep"
      ],
      [
        "t",
        "w"
      ],
      [
        "y",
        "ummy"
      ],
      [
        "The",
        "re"
      ],
      [
        "ar",
        "y"
      ],
      [
        "ok",
        "ay"
      ],
      [
        "wh",
        "y"
      ],
      [
        "k",
        "id"
      ],
      [
        "s",
        "ound"
      ],
      [
        "t",
        "r"
      ],
      [
        "re",
        "st"
      ],
      [
        "surpr",
        "ise"
      ],
      [
        "yel",
        "low"
      ],
      [
        "d",
        "ri"
      ],
      [
        "h",
        "ind"
      ],
      [
        "m",
        "um"
      ],
      [
        "ha",
        "ving"
      ],
      [
        "ing",
        "s"
      ],
      [
        "fo",
        "od"
      ],
      [
        "leave",
        "s"
      ],
      [
        "p",
        "ed"
      ],
      [
        "s",
        "n"
      ],
      [
        "s",
        "low"
      ],
      [
        "ck",
        "ed"
      ],
      [
        "ig",
        "n"
      ],
      [
        "sto",
        "p"
      ],
      [
        "cre",
        "am"
      ],
      [
        "jump",
        "ed"
      ],
      [
        "d",
        "ro"
      ],
      [
        "m",
        "ed"
      ],
      [
        "be",
        "hind"
      ],
      [
        "po",
        "t"
      ],
      [
        "dre",
        "n"
      ],
      [
        "chil",
        "dren"
      ],
      [
        "Hel",
        "lo"
      ],
      [
        "f",
        "f"
      ],
      [
        "pl",
        "an"
      ],
      [
        "un",
        "g"
      ],
      [
        "ra",
        "ce"
      ],
      [
        "mo",
        "ve"
      ],
      [
        "than",
        "k"
      ],
      [
        "run",
        "ning"
      ],
      [
        "fi",
        "x"
      ],
      [
        "blo",
        "cks"
      ],
      [
        "W",
        "h"
      ],
      [
        "W",
        "ow"
      ],
      [
        "is",
        "s"
      ],
      [
        "pl",
        "ied"
      ],
      [
        "fel",
        "l"
      ],
      [
        "pr",
        "in"
      ],
      [
        "careful",
        "ly"
      ],
      [
        "show",
        "ed"
      ],
      [
        "con",
        "t"
      ],
      [
        "kid",
        "s"
      ],
      [
        "J",
        "ill"
      ],
      [
        "p",
        "are"
      ],
      [
        "y",
        "ard"
      ],
      [
        "an",
        "c"
      ],
      [
        "re",
        "plied"
      ],
      [
        "some",
        "one"
      ],
      [
        "rea",
        "ched"
      ],
      [
        "fav",
        "or"
      ],
      [
        "d",
        "in"
      ],
      [
        "p",
        "h"
      ],
      [
        "on",
        "s"
      ],
      [
        "be",
        "ing"
      ],
      [
        "she",
        "d"
      ],
      [
        "li",
        "c"
      ],
      [
        "gr",
        "and"
      ],
      [
        "T",
        "o"
      ],
      [
        "a",
        "ther"
      ],
      [
        "to",
        "w"
      ],
      [
        "on",
        "ly"
      ],
      [
        "ful",
        "l"
      ],
      [
        "smil",
        "es"
      ],
      [
        "wonder",
        "ful"
      ],
      [
        "tea",
        "cher"
      ],
      [
        "favor",
        "ite"
      ],
      [
        "f",
        "ight"
      ],
      [
        "h",
        "or"
      ],
      [
        "m",
        "et"
      ],
      [
        "p",
        "re"
      ],
      [
        "w",
        "ished"
      ],
      [
        "we",
        "l"
      ],
      [
        "co",
        "l"
      ],
      [
        "co",
        "ok"
      ],
      [
        "qu",
        "e"
      ],
      [
        "flow",
        "er"
      ],
      [
        "com",
        "ing"
      ],
      [
        "Jim",
        "my"
      ],
      [
        "c",
        "la"
      ],
      [
        "i",
        "es"
      ],
      [
        "n",
        "ts"
      ],
      [
        "p",
        "et"
      ],
      [
        "to",
        "r"
      ],
      [
        "year",
        "s"
      ],
      [
        "fill",
        "ed"
      ],
      [
        "b",
        "a"
      ],
      [
        "w",
        "rong"
      ],
      [
        "we",
        "ar"
      ],
      [
        "cat",
        "ch"
      ],
      [
        "imp",
        "ort"
      ],
      [
        "import",
        "ant"
      ],
      [
        "h",
        "id"
      ],
      [
        "h",
        "igh"
      ],
      [
        "k",
        "ite"
      ],
      [
        "m",
        "ess"
      ],
      [
        "on",
        "d"
      ],
      [
        "so",
        "ft"
      ],
      [
        "de",
        "ep"
      ],
      [
        "ta",
        "il"
      ],
      [
        "pare",
        "nts"
      ],
      [
        "J",
        "en"
      ],
      [
        "b",
        "ag"
      ],
      [
        "p",
        "ro"
      ],
      [
        "re",
        "ed"
      ],
      [
        "sto",
        "ry"
      ],
      [
        "bird",
        "s"
      ],
      [
        "surpr",
        "ised"
      ],
      [
        "fi",
        "re"
      ],
      [
        "d",
        "raw"
      ],
      [
        "f",
        "ro"
      ],
      [
        "l",
        "and"
      ],
      [
        "m",
        "ight"
      ],
      [
        "p",
        "lease"
      ],
      [
        "s",
        "it"
      ],
      [
        "in",
        "ed"
      ],
      [
        "at",
        "ed"
      ],
      [
        "ok",
        "en"
      ],
      [
        "big",
        "ger"
      ],
      [
        "friend",
        "ly"
      ],
      [
        "ho",
        "ld"
      ],
      [
        "co",
        "ol"
      ],
      [
        "help",
        "ed"
      ],
      [
        "make",
        "s"
      ],
      [
        "clo",
        "se"
      ],
      [
        "tre",
        "es"
      ],
      [
        "tou",
        "ch"
      ],
      [
        "S",
        "ome"
      ],
      [
        "m",
        "ent"
      ],
      [
        "en",
        "s"
      ],
      [
        "se",
        "c"
      ],
      [
        "want",
        "s"
      ],
      [
        "br",
        "oken"
      ],
      [
        "de",
        "lic"
      ],
      [
        "any",
        "thing"
      ],
      [
        "magic",
        "al"
      ],
      [
        "butter",
        "fly"
      ],
      [
        "E",
        "m"
      ],
      [
        "b",
        "ran"
      ],
      [
        "d",
        "one"
      ],
      [
        "h",
        "ill"
      ],
      [
        "u",
        "ed"
      ],
      [
        "z",
        "y"
      ],
      [
        "re",
        "ally"
      ],
      [
        "sa",
        "il"
      ],
      [
        "mo",
        "st"
      ],
      [
        "wor",
        "ry"
      ],
      [
        "ang",
        "er"
      ],
      [
        "wo",
        "od"
      ],
      [
        "less",
        "on"
      ],
      [
        "real",
        "ized"
      ],
      [
        "brea",
        "k"
      ],
      [
        "stran",
        "ge"
      ],
      [
        "sec",
        "ret"
      ],
      [
        "M",
        "ummy"
      ],
      [
        "c",
        "ake"
      ],
      [
        "g",
        "one"
      ],
      [
        "t",
        "all"
      ],
      [
        "ha",
        "ir"
      ],
      [
        "sa",
        "t"
      ],
      [
        "ir",
        "t"
      ],
      [
        "pp",
        "ing"
      ],
      [
        "el",
        "se"
      ],
      [
        "happ",
        "ily"
      ],
      [
        "ag",
        "reed"
      ],
      [
        "him",
        "self"
      ],
      [
        "every",
        "thing"
      ],
      [
        "dre",
        "am"
      ],
      [
        "cr",
        "ay"
      ],
      [
        "app",
        "ear"
      ],
      [
        "enjoy",
        "ed"
      ],
      [
        "remember",
        "ed"
      ],
      [
        "cont",
        "in"
      ],
      [
        "hor",
        "se"
      ],
      [
        "\"",
        "."
      ],
      [
        "c",
        "ried"
      ],
      [
        "p",
        "s"
      ],
      [
        "p",
        "ur"
      ],
      [
        "s",
        "ign"
      ],
      [
        "ar",
        "ri"
      ],
      [
        "il",
        "d"
      ],
      [
        "am",
        "es"
      ],
      [
        "co",
        "ver"
      ],
      [
        "ab",
        "y"
      ],
      [
        "ma",
        "king"
      ],
      [
        "tal",
        "k"
      ],
      [
        "contin",
        "ued"
      ],
      [
        "A",
        "ll"
      ],
      [
        "B",
        "e"
      ],
      [
        "C",
        "ome"
      ],
      [
        "c",
        "ut"
      ],
      [
        "g",
        "s"
      ],
      [
        "v",
        "is"
      ],
      [
        "an",
        "other"
      ],
      [
        "ar",
        "t"
      ],
      [
        "be",
        "e"
      ],
      [
        "at",
        "er"
      ],
      [
        "ve",
        "s"
      ],
      [
        "sto",
        "re"
      ],
      [
        "bl",
[...]
